/* Copyright 2020 The TensorFlow Authors. All Rights Reserved.

Licensed under the Apache License, Version 2.0 (the "License");
you may not use this file except in compliance with the License.
You may obtain a copy of the License at

    http://www.apache.org/licenses/LICENSE-2.0

Unless required by applicable law or agreed to in writing, software
distributed under the License is distributed on an "AS IS" BASIS,
WITHOUT WARRANTIES OR CONDITIONS OF ANY KIND, either express or implied.
See the License for the specific language governing permissions and
limitations under the License.
==============================================================================*/

// Automatically created from a TensorFlow Lite flatbuffer using the command:
// xxd -i model.tflite > model.cc

// This is a standard TensorFlow Lite model file that has been converted into a
// C data array, so it can be easily compiled into a binary for devices that
// don't have a file system.

// See train/README.md for a full description of the creation process.

#include "model.h"

alignas(8) const unsigned char g_model[] = {
  0x1c, 0x00, 0x00, 0x00, 0x54, 0x46, 0x4c, 0x33, 0x00, 0x00, 0x12, 0x00,
  0x1c, 0x00, 0x04, 0x00, 0x08, 0x00, 0x0c, 0x00, 0x10, 0x00, 0x14, 0x00,
  0x00, 0x00, 0x18, 0x00, 0x12, 0x00, 0x00, 0x00, 0x03, 0x00, 0x00, 0x00,
  0x14, 0x00, 0x00, 0x00, 0x28, 0x00, 0x00, 0x00, 0xd0, 0x00, 0x00, 0x00,
  0x28, 0x00, 0x00, 0x00, 0x78, 0x00, 0x00, 0x00, 0x05, 0x00, 0x00, 0x00,
  0xe0, 0x06, 0x00, 0x00, 0x00, 0x06, 0x00, 0x00, 0x7c, 0x03, 0x00, 0x00,
  0xd4, 0x02, 0x00, 0x00, 0xa8, 0x01, 0x00, 0x00, 0x01, 0x00, 0x00, 0x00,
  0xcc, 0x00, 0x00, 0x00, 0x14, 0x00, 0x00, 0x00, 0x90, 0x4e, 0x00, 0x00,
  0x8c, 0x4e, 0x00, 0x00, 0x84, 0x4d, 0x00, 0x00, 0xd0, 0x4c, 0x00, 0x00,
  0x28, 0x4c, 0x00, 0x00, 0xb0, 0x4b, 0x00, 0x00, 0x44, 0x4b, 0x00, 0x00,
  0xf4, 0x12, 0x00, 0x00, 0xa0, 0x11, 0x00, 0x00, 0xc4, 0x0f, 0x00, 0x00,
  0x68, 0x07, 0x00, 0x00, 0x64, 0x4e, 0x00, 0x00, 0x60, 0x4e, 0x00, 0x00,
  0x5c, 0x4e, 0x00, 0x00, 0x58, 0x4e, 0x00, 0x00, 0x54, 0x4e, 0x00, 0x00,
  0x50, 0x4e, 0x00, 0x00, 0x4c, 0x4e, 0x00, 0x00, 0x48, 0x4e, 0x00, 0x00,
  0x38, 0x00, 0x00, 0x00, 0x01, 0x00, 0x00, 0x00, 0x0c, 0x00, 0x00, 0x00,
  0x08, 0x00, 0x0c, 0x00, 0x04, 0x00, 0x08, 0x00, 0x08, 0x00, 0x00, 0x00,
  0x08, 0x00, 0x00, 0x00, 0x13, 0x00, 0x00, 0x00, 0x13, 0x00, 0x00, 0x00,
  0x6d, 0x69, 0x6e, 0x5f, 0x72, 0x75, 0x6e, 0x74, 0x69, 0x6e, 0x65, 0x5f,
  0x76, 0x65, 0x72, 0x73, 0x69, 0x6f, 0x6e, 0x00, 0xfe, 0xb2, 0xff, 0xff,
  0x04, 0x00, 0x00, 0x00, 0x10, 0x00, 0x00, 0x00, 0x31, 0x2e, 0x35, 0x2e,
  0x30, 0x00, 0x00, 0x00, 0x00, 0x00, 0x00, 0x00, 0x00, 0x00, 0x00, 0x00,
  0x0f, 0x00, 0x00, 0x00, 0x4d, 0x4c, 0x49, 0x52, 0x20, 0x43, 0x6f, 0x6e,
  0x76, 0x65, 0x72, 0x74, 0x65, 0x64, 0x2e, 0x00, 0x00, 0x00, 0x0e, 0x00,
  0x18, 0x00, 0x04, 0x00, 0x08, 0x00, 0x0c, 0x00, 0x10, 0x00, 0x14, 0x00,
  0x0e, 0x00, 0x00, 0x00, 0x14, 0x00, 0x00, 0x00, 0x5c, 0x00, 0x00, 0x00,
  0x60, 0x00, 0x00, 0x00, 0x64, 0x00, 0x00, 0x00, 0x84, 0x00, 0x00, 0x00,
  0x12, 0x00, 0x00, 0x00, 0x54, 0x4d, 0x00, 0x00, 0xe4, 0x4c, 0x00, 0x00,
  0x40, 0x4c, 0x00, 0x00, 0x98, 0x4b, 0x00, 0x00, 0xf0, 0x4a, 0x00, 0x00,
  0x8c, 0x4a, 0x00, 0x00, 0x24, 0x4a, 0x00, 0x00, 0xd0, 0x11, 0x00, 0x00,
  0x74, 0x10, 0x00, 0x00, 0x98, 0x0e, 0x00, 0x00, 0xc4, 0x05, 0x00, 0x00,
  0xe4, 0x04, 0x00, 0x00, 0xa8, 0x03, 0x00, 0x00, 0xfc, 0x02, 0x00, 0x00,
  0x58, 0x02, 0x00, 0x00, 0xb0, 0x01, 0x00, 0x00, 0x0c, 0x01, 0x00, 0x00,
  0x80, 0x00, 0x00, 0x00, 0x01, 0x00, 0x00, 0x00, 0x00, 0x00, 0x00, 0x00,
  0x01, 0x00, 0x00, 0x00, 0x11, 0x00, 0x00, 0x00, 0x08, 0x00, 0x00, 0x00,
  0x30, 0x05, 0x00, 0x00, 0x54, 0x04, 0x00, 0x00, 0x38, 0x03, 0x00, 0x00,
  0x7c, 0x02, 0x00, 0x00, 0xf4, 0x01, 0x00, 0x00, 0x30, 0x01, 0x00, 0x00,
  0xa4, 0x00, 0x00, 0x00, 0x10, 0x00, 0x00, 0x00, 0x04, 0x00, 0x00, 0x00,
  0x6d, 0x61, 0x69, 0x6e, 0x00, 0x00, 0x00, 0x00, 0x7e, 0xff, 0xff, 0xff,
  0x00, 0x00, 0x00, 0x09, 0x04, 0x00, 0x00, 0x00, 0x1c, 0x00, 0x00, 0x00,
  0x10, 0x00, 0x00, 0x00, 0x04, 0x00, 0x00, 0x00, 0xfa, 0xb3, 0xff, 0xff,
  0x00, 0x00, 0x80, 0x3f, 0x01, 0x00, 0x00, 0x00, 0x11, 0x00, 0x00, 0x00,
  0x01, 0x00, 0x00, 0x00, 0x10, 0x00, 0x00, 0x00, 0xe2, 0xfa, 0xff, 0xff,
  0x00, 0x00, 0x00, 0x19, 0x01, 0x00, 0x00, 0x00, 0x84, 0xb3, 0xff, 0xff,
  0x14, 0x00, 0x00, 0x00, 0x12, 0x00, 0x00, 0x00, 0x24, 0x00, 0x00, 0x00,
  0x30, 0x00, 0x00, 0x00, 0x10, 0x00, 0x00, 0x00, 0x02, 0x00, 0x00, 0x00,
  0x01, 0x00, 0x00, 0x00, 0x04, 0x00, 0x00, 0x00, 0x02, 0x00, 0x00, 0x00,
  0xff, 0xff, 0xff, 0xff, 0x04, 0x00, 0x00, 0x00, 0x08, 0x00, 0x00, 0x00,
  0x49, 0x64, 0x65, 0x6e, 0x74, 0x69, 0x74, 0x79, 0x00, 0x00, 0x00, 0x00,
  0x68, 0xb4, 0xff, 0xff, 0x00, 0x00, 0x0e, 0x00, 0x18, 0x00, 0x08, 0x00,
  0x0c, 0x00, 0x10, 0x00, 0x07, 0x00, 0x14, 0x00, 0x0e, 0x00, 0x00, 0x00,
  0x00, 0x00, 0x00, 0x08, 0x03, 0x00, 0x00, 0x00, 0x18, 0x00, 0x00, 0x00,
  0x0c, 0x00, 0x00, 0x00, 0x04, 0x00, 0x00, 0x00, 0x84, 0xb3, 0xff, 0xff,
  0x01, 0x00, 0x00, 0x00, 0x10, 0x00, 0x00, 0x00, 0x03, 0x00, 0x00, 0x00,
  0x0f, 0x00, 0x00, 0x00, 0x07, 0x00, 0x00, 0x00, 0x04, 0x00, 0x00, 0x00,
  0x0c, 0xb4, 0xff, 0xff, 0x14, 0x00, 0x00, 0x00, 0x11, 0x00, 0x00, 0x00,
  0x24, 0x00, 0x00, 0x00, 0x40, 0x00, 0x00, 0x00, 0x10, 0x00, 0x00, 0x00,
  0x02, 0x00, 0x00, 0x00, 0x01, 0x00, 0x00, 0x00, 0x04, 0x00, 0x00, 0x00,
  0x02, 0x00, 0x00, 0x00, 0xff, 0xff, 0xff, 0xff, 0x04, 0x00, 0x00, 0x00,
  0x1a, 0x00, 0x00, 0x00, 0x73, 0x65, 0x71, 0x75, 0x65, 0x6e, 0x74, 0x69,
  0x61, 0x6c, 0x2f, 0x64, 0x65, 0x6e, 0x73, 0x65, 0x5f, 0x31, 0x2f, 0x42,
  0x69, 0x61, 0x73, 0x41, 0x64, 0x64, 0x00, 0x00, 0xf0, 0xb3, 0xff, 0xff,
  0xfa, 0xfc, 0xff, 0xff, 0x00, 0x00, 0x00, 0x08, 0x03, 0x00, 0x00, 0x00,
  0x24, 0x00, 0x00, 0x00, 0x18, 0x00, 0x00, 0x00, 0x0c, 0x00, 0x00, 0x00,
  0x00, 0x00, 0x06, 0x00, 0x08, 0x00, 0x07, 0x00, 0x06, 0x00, 0x00, 0x00,
  0x00, 0x00, 0x00, 0x01, 0x01, 0x00, 0x00, 0x00, 0x0f, 0x00, 0x00, 0x00,
  0x03, 0x00, 0x00, 0x00, 0x0e, 0x00, 0x00, 0x00, 0x06, 0x00, 0x00, 0x00,
  0x03, 0x00, 0x00, 0x00, 0x0a, 0xfc, 0xff, 0xff, 0x00, 0x00, 0x00, 0x09,
  0x01, 0x00, 0x00, 0x00, 0xac, 0xb4, 0xff, 0xff, 0x14, 0x00, 0x00, 0x00,
  0x10, 0x00, 0x00, 0x00, 0x24, 0x00, 0x00, 0x00, 0x54, 0x00, 0x00, 0x00,
  0x10, 0x00, 0x00, 0x00, 0x02, 0x00, 0x00, 0x00, 0x01, 0x00, 0x00, 0x00,
  0x10, 0x00, 0x00, 0x00, 0x02, 0x00, 0x00, 0x00, 0xff, 0xff, 0xff, 0xff,
  0x10, 0x00, 0x00, 0x00, 0x2e, 0x00, 0x00, 0x00, 0x73, 0x65, 0x71, 0x75,
  0x65, 0x6e, 0x74, 0x69, 0x61, 0x6c, 0x2f, 0x64, 0x65, 0x6e, 0x73, 0x65,
  0x2f, 0x52, 0x65, 0x6c, 0x75, 0x3b, 0x73, 0x65, 0x71, 0x75, 0x65, 0x6e,
  0x74, 0x69, 0x61, 0x6c, 0x2f, 0x64, 0x65, 0x6e, 0x73, 0x65, 0x2f, 0x42,
  0x69, 0x61, 0x73, 0x41, 0x64, 0x64, 0x00, 0x00, 0xb4, 0xb5, 0xff, 0xff,
  0x00, 0x00, 0x0a, 0x00, 0x10, 0x00, 0x04, 0x00, 0x08, 0x00, 0x0c, 0x00,
  0x0a, 0x00, 0x00, 0x00, 0x02, 0x00, 0x00, 0x00, 0x10, 0x00, 0x00, 0x00,
  0x04, 0x00, 0x00, 0x00, 0x01, 0x00, 0x00, 0x00, 0x0e, 0x00, 0x00, 0x00,
  0x02, 0x00, 0x00, 0x00, 0x0d, 0x00, 0x00, 0x00, 0x05, 0x00, 0x00, 0x00,
  0xae, 0xfc, 0xff, 0xff, 0x00, 0x00, 0x00, 0x16, 0x01, 0x00, 0x00, 0x00,
  0x50, 0xb5, 0xff, 0xff, 0x14, 0x00, 0x00, 0x00, 0x0f, 0x00, 0x00, 0x00,
  0x24, 0x00, 0x00, 0x00, 0x40, 0x00, 0x00, 0x00, 0x10, 0x00, 0x00, 0x00,
  0x02, 0x00, 0x00, 0x00, 0x01, 0x00, 0x00, 0x00, 0xe0, 0x00, 0x00, 0x00,
  0x02, 0x00, 0x00, 0x00, 0xff, 0xff, 0xff, 0xff, 0xe0, 0x00, 0x00, 0x00,
  0x1a, 0x00, 0x00, 0x00, 0x73, 0x65, 0x71, 0x75, 0x65, 0x6e, 0x74, 0x69,
  0x61, 0x6c, 0x2f, 0x66, 0x6c, 0x61, 0x74, 0x74, 0x65, 0x6e, 0x2f, 0x52,
  0x65, 0x73, 0x68, 0x61, 0x70, 0x65, 0x00, 0x00, 0x34, 0xb5, 0xff, 0xff,
  0x3e, 0xfe, 0xff, 0xff, 0x00, 0x00, 0x00, 0x05, 0x01, 0x00, 0x00, 0x00,
  0x38, 0x00, 0x00, 0x00, 0x2c, 0x00, 0x00, 0x00, 0x14, 0x00, 0x00, 0x00,
  0x00, 0x00, 0x0e, 0x00, 0x14, 0x00, 0x00, 0x00, 0x10, 0x00, 0x0c, 0x00,
  0x08, 0x00, 0x04, 0x00, 0x0e, 0x00, 0x00, 0x00, 0x03, 0x00, 0x00, 0x00,
  0x01, 0x00, 0x00, 0x00, 0x03, 0x00, 0x00, 0x00, 0x01, 0x00, 0x00, 0x00,
  0x01, 0x00, 0x00, 0x00, 0x0d, 0x00, 0x00, 0x00, 0x01, 0x00, 0x00, 0x00,
  0x0c, 0x00, 0x00, 0x00, 0xf0, 0xb5, 0xff, 0xff, 0x14, 0x00, 0x00, 0x00,
  0x0e, 0x00, 0x00, 0x00, 0x34, 0x00, 0x00, 0x00, 0x58, 0x00, 0x00, 0x00,
  0x18, 0x00, 0x00, 0x00, 0x04, 0x00, 0x00, 0x00, 0x01, 0x00, 0x00, 0x00,
  0x0e, 0x00, 0x00, 0x00, 0x01, 0x00, 0x00, 0x00, 0x10, 0x00, 0x00, 0x00,
  0x04, 0x00, 0x00, 0x00, 0xff, 0xff, 0xff, 0xff, 0x0e, 0x00, 0x00, 0x00,
  0x01, 0x00, 0x00, 0x00, 0x10, 0x00, 0x00, 0x00, 0x22, 0x00, 0x00, 0x00,
  0x73, 0x65, 0x71, 0x75, 0x65, 0x6e, 0x74, 0x69, 0x61, 0x6c, 0x2f, 0x6d,
  0x61, 0x78, 0x5f, 0x70, 0x6f, 0x6f, 0x6c, 0x69, 0x6e, 0x67, 0x32, 0x64,
  0x5f, 0x31, 0x2f, 0x4d, 0x61, 0x78, 0x50, 0x6f, 0x6f, 0x6c, 0x00, 0x00,
  0xec, 0xb5, 0xff, 0xff, 0x1e, 0xfe, 0xff, 0xff, 0x00, 0x00, 0x00, 0x01,
  0x24, 0x00, 0x00, 0x00, 0x18, 0x00, 0x00, 0x00, 0x04, 0x00, 0x00, 0x00,
  0x10, 0xfe, 0xff, 0xff, 0x01, 0x00, 0x00, 0x00, 0x01, 0x00, 0x00, 0x00,
  0x00, 0x00, 0x00, 0x01, 0x01, 0x00, 0x00, 0x00, 0x0c, 0x00, 0x00, 0x00,
  0x03, 0x00, 0x00, 0x00, 0x0b, 0x00, 0x00, 0x00, 0x09, 0x00, 0x00, 0x00,
  0x02, 0x00, 0x00, 0x00, 0x98, 0xb6, 0xff, 0xff, 0x14, 0x00, 0x00, 0x00,
  0x0d, 0x00, 0x00, 0x00, 0x34, 0x00, 0x00, 0x00, 0xb8, 0x00, 0x00, 0x00,
  0x18, 0x00, 0x00, 0x00, 0x04, 0x00, 0x00, 0x00, 0x01, 0x00, 0x00, 0x00,
  0x2a, 0x00, 0x00, 0x00, 0x01, 0x00, 0x00, 0x00, 0x10, 0x00, 0x00, 0x00,
  0x04, 0x00, 0x00, 0x00, 0xff, 0xff, 0xff, 0xff, 0x2a, 0x00, 0x00, 0x00,
  0x01, 0x00, 0x00, 0x00, 0x10, 0x00, 0x00, 0x00, 0x83, 0x00, 0x00, 0x00,
  0x73, 0x65, 0x71, 0x75, 0x65, 0x6e, 0x74, 0x69, 0x61, 0x6c, 0x2f, 0x63,
  0x6f, 0x6e, 0x76, 0x32, 0x64, 0x5f, 0x31, 0x2f, 0x52, 0x65, 0x6c, 0x75,
  0x3b, 0x73, 0x65, 0x71, 0x75, 0x65, 0x6e, 0x74, 0x69, 0x61, 0x6c, 0x2f,
  0x63, 0x6f, 0x6e, 0x76, 0x32, 0x64, 0x5f, 0x31, 0x2f, 0x42, 0x69, 0x61,
  0x73, 0x41, 0x64, 0x64, 0x3b, 0x73, 0x65, 0x71, 0x75, 0x65, 0x6e, 0x74,
  0x69, 0x61, 0x6c, 0x2f, 0x63, 0x6f, 0x6e, 0x76, 0x32, 0x64, 0x5f, 0x31,
  0x2f, 0x43, 0x6f, 0x6e, 0x76, 0x32, 0x44, 0x3b, 0x73, 0x65, 0x71, 0x75,
  0x65, 0x6e, 0x74, 0x69, 0x61, 0x6c, 0x2f, 0x63, 0x6f, 0x6e, 0x76, 0x32,
  0x64, 0x5f, 0x31, 0x2f, 0x42, 0x69, 0x61, 0x73, 0x41, 0x64, 0x64, 0x2f,
  0x52, 0x65, 0x61, 0x64, 0x56, 0x61, 0x72, 0x69, 0x61, 0x62, 0x6c, 0x65,
  0x4f, 0x70, 0x2f, 0x72, 0x65, 0x73, 0x6f, 0x75, 0x72, 0x63, 0x65, 0x00,
  0x04, 0xb8, 0xff, 0xff, 0x00, 0x00, 0x0e, 0x00, 0x1a, 0x00, 0x08, 0x00,
  0x0c, 0x00, 0x10, 0x00, 0x07, 0x00, 0x14, 0x00, 0x0e, 0x00, 0x00, 0x00,
  0x00, 0x00, 0x00, 0x05, 0x01, 0x00, 0x00, 0x00, 0x3c, 0x00, 0x00, 0x00,
  0x30, 0x00, 0x00, 0x00, 0x14, 0x00, 0x00, 0x00, 0x00, 0x00, 0x0e, 0x00,
  0x18, 0x00, 0x17, 0x00, 0x10, 0x00, 0x0c, 0x00, 0x08, 0x00, 0x04, 0x00,
  0x0e, 0x00, 0x00, 0x00, 0x03, 0x00, 0x00, 0x00, 0x03, 0x00, 0x00, 0x00,
  0x03, 0x00, 0x00, 0x00, 0x03, 0x00, 0x00, 0x00, 0x00, 0x00, 0x00, 0x01,
  0x01, 0x00, 0x00, 0x00, 0x0b, 0x00, 0x00, 0x00, 0x01, 0x00, 0x00, 0x00,
  0x0a, 0x00, 0x00, 0x00, 0x2e, 0xff, 0xff, 0xff, 0x00, 0x00, 0x00, 0x11,
  0x01, 0x00, 0x00, 0x00, 0xd0, 0xb7, 0xff, 0xff, 0x14, 0x00, 0x00, 0x00,
  0x0c, 0x00, 0x00, 0x00, 0x34, 0x00, 0x00, 0x00, 0x58, 0x00, 0x00, 0x00,
  0x18, 0x00, 0x00, 0x00, 0x04, 0x00, 0x00, 0x00, 0x01, 0x00, 0x00, 0x00,
  0x2a, 0x00, 0x00, 0x00, 0x01, 0x00, 0x00, 0x00, 0x08, 0x00, 0x00, 0x00,
  0x04, 0x00, 0x00, 0x00, 0xff, 0xff, 0xff, 0xff, 0x2a, 0x00, 0x00, 0x00,
  0x01, 0x00, 0x00, 0x00, 0x08, 0x00, 0x00, 0x00, 0x20, 0x00, 0x00, 0x00,
  0x73, 0x65, 0x71, 0x75, 0x65, 0x6e, 0x74, 0x69, 0x61, 0x6c, 0x2f, 0x6d,
  0x61, 0x78, 0x5f, 0x70, 0x6f, 0x6f, 0x6c, 0x69, 0x6e, 0x67, 0x32, 0x64,
  0x2f, 0x4d, 0x61, 0x78, 0x50, 0x6f, 0x6f, 0x6c, 0x00, 0x00, 0x00, 0x00,
  0xdc, 0xb8, 0xff, 0xff, 0x00, 0x00, 0x0e, 0x00, 0x14, 0x00, 0x00, 0x00,
  0x08, 0x00, 0x0c, 0x00, 0x07, 0x00, 0x10, 0x00, 0x0e, 0x00, 0x00, 0x00,
  0x00, 0x00, 0x00, 0x01, 0x30, 0x00, 0x00, 0x00, 0x24, 0x00, 0x00, 0x00,
  0x10, 0x00, 0x00, 0x00, 0x0c, 0x00, 0x10, 0x00, 0x00, 0x00, 0x04, 0x00,
  0x08, 0x00, 0x0f, 0x00, 0x0c, 0x00, 0x00, 0x00, 0x01, 0x00, 0x00, 0x00,
  0x01, 0x00, 0x00, 0x00, 0x00, 0x00, 0x00, 0x01, 0x01, 0x00, 0x00, 0x00,
  0x0a, 0x00, 0x00, 0x00, 0x03, 0x00, 0x00, 0x00, 0x00, 0x00, 0x00, 0x00,
  0x08, 0x00, 0x00, 0x00, 0x01, 0x00, 0x00, 0x00, 0x00, 0x00, 0x0a, 0x00,
  0x0c, 0x00, 0x07, 0x00, 0x00, 0x00, 0x08, 0x00, 0x0a, 0x00, 0x00, 0x00,
  0x00, 0x00, 0x00, 0x03, 0x01, 0x00, 0x00, 0x00, 0xac, 0xb8, 0xff, 0xff,
  0x14, 0x00, 0x00, 0x00, 0x0b, 0x00, 0x00, 0x00, 0x34, 0x00, 0x00, 0x00,
  0xb0, 0x00, 0x00, 0x00, 0x18, 0x00, 0x00, 0x00, 0x04, 0x00, 0x00, 0x00,
  0x01, 0x00, 0x00, 0x00, 0x80, 0x00, 0x00, 0x00, 0x03, 0x00, 0x00, 0x00,
  0x08, 0x00, 0x00, 0x00, 0x04, 0x00, 0x00, 0x00, 0xff, 0xff, 0xff, 0xff,
  0x80, 0x00, 0x00, 0x00, 0x03, 0x00, 0x00, 0x00, 0x08, 0x00, 0x00, 0x00,
  0x7b, 0x00, 0x00, 0x00, 0x73, 0x65, 0x71, 0x75, 0x65, 0x6e, 0x74, 0x69,
  0x61, 0x6c, 0x2f, 0x63, 0x6f, 0x6e, 0x76, 0x32, 0x64, 0x2f, 0x52, 0x65,
  0x6c, 0x75, 0x3b, 0x73, 0x65, 0x71, 0x75, 0x65, 0x6e, 0x74, 0x69, 0x61,
  0x6c, 0x2f, 0x63, 0x6f, 0x6e, 0x76, 0x32, 0x64, 0x2f, 0x42, 0x69, 0x61,
  0x73, 0x41, 0x64, 0x64, 0x3b, 0x73, 0x65, 0x71, 0x75, 0x65, 0x6e, 0x74,
  0x69, 0x61, 0x6c, 0x2f, 0x63, 0x6f, 0x6e, 0x76, 0x32, 0x64, 0x2f, 0x43,
  0x6f, 0x6e, 0x76, 0x32, 0x44, 0x3b, 0x73, 0x65, 0x71, 0x75, 0x65, 0x6e,
  0x74, 0x69, 0x61, 0x6c, 0x2f, 0x63, 0x6f, 0x6e, 0x76, 0x32, 0x64, 0x2f,
  0x42, 0x69, 0x61, 0x73, 0x41, 0x64, 0x64, 0x2f, 0x52, 0x65, 0x61, 0x64,
  0x56, 0x61, 0x72, 0x69, 0x61, 0x62, 0x6c, 0x65, 0x4f, 0x70, 0x2f, 0x72,
  0x65, 0x73, 0x6f, 0x75, 0x72, 0x63, 0x65, 0x00, 0x00, 0xb9, 0xff, 0xff,
  0x0a, 0xba, 0xff, 0xff, 0x04, 0x00, 0x00, 0x00, 0x00, 0x08, 0x00, 0x00,
  0x07, 0x58, 0xe0, 0xbc, 0xc5, 0x74, 0xbf, 0xbd, 0x49, 0xf0, 0x96, 0x3e,
  0x27, 0x1a, 0xe9, 0x3d, 0xfb, 0x04, 0x8d, 0x3e, 0xc4, 0x3d, 0x7f, 0xbd,
  0x87, 0xcf, 0x32, 0xbe, 0xd2, 0x12, 0x57, 0x3e, 0xa6, 0xdb, 0xc5, 0xbc,
  0x36, 0x8a, 0xa3, 0x3d, 0xd8, 0x57, 0xc2, 0xbd, 0x52, 0xf5, 0x46, 0x3e,
  0xc5, 0x55, 0x05, 0xbd, 0x2e, 0x5d, 0x7c, 0xbe, 0x63, 0xd6, 0x2d, 0xbe,
  0xd0, 0xe1, 0x50, 0xbb, 0xfd, 0x48, 0xea, 0xbd, 0xf0, 0xd3, 0xb6, 0x3d,
  0x6e, 0x25, 0x05, 0x3e, 0x32, 0x8d, 0x92, 0xbd, 0x56, 0xd5, 0xf7, 0x3d,
  0xe6, 0x6e, 0x68, 0xbe, 0x06, 0x50, 0x11, 0x3e, 0xe9, 0x7d, 0x24, 0x3e,
  0x02, 0x9f, 0x3a, 0xbe, 0xf6, 0xab, 0x05, 0xbe, 0x03, 0xf3, 0x69, 0x3e,
  0x31, 0xcc, 0xd6, 0xbd, 0x7e, 0xf7, 0xe4, 0x3d, 0x57, 0x99, 0xd3, 0x3c,
  0xa7, 0xa4, 0x87, 0xbc, 0xea, 0x15, 0x19, 0x3e, 0xe4, 0xaf, 0x1d, 0xbe,
  0xc8, 0x48, 0x31, 0x3e, 0x60, 0x7a, 0xa7, 0x3d, 0x40, 0x9e, 0x74, 0x3e,
  0x06, 0x07, 0x44, 0xbe, 0xef, 0x2b, 0xb3, 0x3d, 0x31, 0xb3, 0xa0, 0x3c,
  0x5e, 0x93, 0x31, 0xbd, 0x81, 0xa7, 0x7c, 0x3e, 0x4b, 0x28, 0x14, 0xbe,
  0xb4, 0x4f, 0x95, 0x3d, 0x0d, 0x81, 0xa4, 0x3d, 0xd9, 0xf0, 0x84, 0x3e,
  0xd3, 0x9a, 0x82, 0xbd, 0xc6, 0xd9, 0x3c, 0x3e, 0x7a, 0x64, 0xd2, 0x3d,
  0x4a, 0x48, 0x46, 0x3e, 0xa4, 0xc0, 0xfa, 0x3c, 0xd1, 0x64, 0xe2, 0xbc,
  0x49, 0xd4, 0x65, 0x3c, 0x03, 0x91, 0x8d, 0x3d, 0x7b, 0x79, 0x7d, 0x3d,
  0x43, 0x66, 0x4f, 0x3e, 0x58, 0xe0, 0x50, 0x3e, 0xa2, 0xf3, 0x50, 0x3e,
  0x27, 0xe1, 0xd1, 0x3d, 0x15, 0xb5, 0xcd, 0x3d, 0x5a, 0x3c, 0x2e, 0x3e,
  0xfe, 0xde, 0x27, 0x3c, 0x2d, 0xc1, 0x57, 0x3e, 0x91, 0x30, 0x1e, 0x3e,
  0x22, 0xe8, 0x66, 0x3c, 0xa2, 0xc3, 0xaf, 0xbd, 0x11, 0xf9, 0x5b, 0xbc,
  0x23, 0xcd, 0x17, 0x3e, 0xaf, 0x41, 0x4b, 0x3e, 0x32, 0x86, 0xba, 0xbd,
  0x8f, 0x6a, 0xa3, 0x3c, 0xaa, 0xb0, 0x25, 0x3d, 0x5e, 0x97, 0x18, 0xbd,
  0xc2, 0xfb, 0x44, 0xbe, 0x55, 0x71, 0xc1, 0xbd, 0x1c, 0x28, 0xf6, 0xbd,
  0xd9, 0xb4, 0x54, 0x3e, 0x19, 0x38, 0xb3, 0xbd, 0x09, 0xe5, 0xb8, 0x3d,
  0x71, 0xb1, 0xfe, 0xbd, 0x25, 0x82, 0x80, 0x3e, 0x56, 0x8a, 0x4d, 0x3e,
  0xe3, 0xde, 0x25, 0x3d, 0xd5, 0x7f, 0xf7, 0xbd, 0xae, 0xce, 0x1e, 0xbd,
  0x6e, 0x8e, 0xb6, 0xbd, 0xdd, 0xcc, 0xa1, 0x3d, 0xe0, 0x35, 0x9c, 0x3d,
  0x82, 0x9b, 0x81, 0x3e, 0x5e, 0x2c, 0x68, 0x3e, 0x26, 0xdb, 0x04, 0xbe,
  0xe8, 0xa7, 0xde, 0x3d, 0xbe, 0x77, 0x5a, 0x3e, 0xa8, 0x4c, 0x52, 0xbe,
  0xf5, 0x8a, 0x5e, 0x3e, 0xca, 0x0c, 0x81, 0x3e, 0x85, 0x46, 0x66, 0xba,
  0x47, 0x7b, 0x65, 0x3e, 0x3b, 0xe8, 0xfe, 0xbd, 0x40, 0x5b, 0x52, 0xbc,
  0x3e, 0xbc, 0xaf, 0x3d, 0xf2, 0x43, 0x0b, 0xbe, 0xec, 0x96, 0x8c, 0x3d,
  0x6a, 0x44, 0x8c, 0x3d, 0x2f, 0xb4, 0xc8, 0xbd, 0x48, 0xac, 0x5f, 0x3e,
  0x86, 0x27, 0x26, 0x3e, 0x82, 0xa2, 0x9d, 0xbe, 0x4c, 0x38, 0x29, 0x3d,
  0x6d, 0x17, 0xba, 0xbd, 0xc0, 0xf3, 0x85, 0x3e, 0x07, 0x3c, 0x3c, 0x3e,
  0x36, 0x56, 0x8d, 0x3e, 0x1b, 0x4e, 0x42, 0x3e, 0xb6, 0xfd, 0x67, 0xbe,
  0x9c, 0xb8, 0x4f, 0xbe, 0x6c, 0x95, 0x7e, 0x39, 0x1c, 0xbd, 0x4e, 0xbd,
  0x94, 0x35, 0x99, 0x3e, 0xc2, 0x04, 0xca, 0xbb, 0x81, 0x69, 0x0a, 0xbe,
  0xe4, 0xe1, 0xa4, 0xbd, 0x74, 0x07, 0xf4, 0xbd, 0xd5, 0x01, 0xf6, 0x3d,
  0xc9, 0xdd, 0x11, 0xbe, 0xc8, 0x15, 0xa3, 0xbd, 0xd1, 0x05, 0x24, 0x3e,
  0x67, 0x83, 0xa8, 0x3d, 0x29, 0x73, 0x95, 0x3e, 0x18, 0x7c, 0x02, 0xbe,
  0xd2, 0x0f, 0xe3, 0x3d, 0x6f, 0xdb, 0x71, 0xbb, 0xef, 0xcd, 0x63, 0xbe,
  0xb7, 0x62, 0x59, 0x3e, 0x64, 0xb2, 0xa1, 0x3d, 0xde, 0x7d, 0xc1, 0x3d,
  0xb3, 0x21, 0xf0, 0x3d, 0xcc, 0x84, 0x4a, 0xbd, 0x75, 0x45, 0x35, 0x3e,
  0xb1, 0x9f, 0x3f, 0xbe, 0xf8, 0xa4, 0x29, 0x3e, 0xcc, 0x0d, 0x86, 0x3e,
  0xca, 0x94, 0x41, 0x3e, 0xc2, 0x2c, 0x0b, 0xbe, 0xd1, 0x99, 0xad, 0xbd,
  0x86, 0xb9, 0x77, 0xbe, 0x50, 0xcd, 0x00, 0xbe, 0xe3, 0xa7, 0x63, 0x3e,
  0x2a, 0x2b, 0x8b, 0x3d, 0x97, 0xaf, 0xa5, 0x3e, 0x4e, 0x28, 0x5b, 0xbe,
  0xf9, 0x57, 0x4f, 0xbe, 0x47, 0xf0, 0x90, 0xbd, 0xab, 0x50, 0xc7, 0xb9,
  0xf1, 0xd6, 0x23, 0x3e, 0xbe, 0x33, 0x80, 0x3e, 0x09, 0xc6, 0x1c, 0x3d,
  0x8a, 0xe2, 0x3b, 0x3e, 0x3c, 0x4e, 0x1c, 0xbe, 0xee, 0x92, 0x86, 0xbd,
  0xaa, 0x21, 0x7c, 0x3e, 0x20, 0x80, 0x66, 0xbe, 0x80, 0xf6, 0x0e, 0xbe,
  0x50, 0xcb, 0x7c, 0xbe, 0x8c, 0x7d, 0x10, 0xbe, 0x70, 0x08, 0xfa, 0xbd,
  0xa4, 0x1b, 0x29, 0xbe, 0x84, 0xa9, 0x3c, 0xbe, 0xb8, 0x64, 0xd3, 0xbd,
  0x20, 0x3e, 0xb9, 0x3d, 0x5c, 0x69, 0x3f, 0x3e, 0xa0, 0x29, 0x1a, 0xbe,
  0xf4, 0x93, 0x0a, 0xbe, 0x70, 0x9b, 0xd6, 0xbd, 0x00, 0xc8, 0xaa, 0x39,
  0x20, 0x7a, 0x53, 0xbe, 0xc0, 0xb3, 0x1e, 0x3c, 0x50, 0xd7, 0x77, 0x3e,
  0x98, 0xf7, 0xe0, 0xbd, 0x80, 0x6f, 0xb5, 0xbb, 0x40, 0x75, 0xf9, 0xbd,
  0xb0, 0x16, 0x64, 0xbe, 0x44, 0x7f, 0x56, 0xbe, 0x18, 0x5d, 0xa6, 0x3d,
  0x30, 0x01, 0x32, 0xbd, 0x78, 0x13, 0xd0, 0x3d, 0x84, 0x2c, 0x76, 0xbe,
  0xa8, 0x76, 0xcb, 0x3d, 0x88, 0xda, 0x02, 0x3e, 0xe0, 0x94, 0xf4, 0xbd,
  0xc0, 0x21, 0x11, 0xbc, 0x5c, 0xc1, 0x76, 0xbe, 0xd4, 0x0b, 0x7e, 0xbe,
  0xf8, 0xcf, 0x40, 0x3e, 0x10, 0xb5, 0x74, 0xbe, 0x10, 0x05, 0x24, 0x3e,
  0x80, 0x8b, 0xb1, 0xbc, 0x58, 0x8d, 0x42, 0xbe, 0x90, 0x4b, 0x64, 0x3e,
  0x50, 0x24, 0x01, 0xbd, 0x5c, 0x1a, 0x1f, 0x3e, 0xd0, 0x86, 0x54, 0xbe,
  0xc0, 0x22, 0x79, 0x3c, 0x08, 0xe5, 0xe0, 0xbd, 0xa4, 0x9b, 0x6b, 0xbe,
  0xa0, 0x48, 0x55, 0xbd, 0x68, 0x4f, 0x03, 0xbe, 0x18, 0x3a, 0xac, 0x3d,
  0xf0, 0x65, 0xbb, 0xbd, 0x9c, 0x67, 0x4e, 0x3e, 0x38, 0x37, 0x72, 0xbe,
  0x60, 0xa2, 0x55, 0xbd, 0x38, 0x73, 0xa1, 0xbd, 0x00, 0x78, 0x2c, 0x3d,
  0xf4, 0x6f, 0x30, 0x3e, 0xb4, 0x00, 0x2b, 0xbe, 0xd0, 0x37, 0x16, 0xbe,
  0xb4, 0xff, 0x5a, 0xbe, 0x10, 0x32, 0x65, 0x3d, 0x40, 0x26, 0x3e, 0x3e,
  0x00, 0xd8, 0xac, 0x3c, 0x3c, 0x4f, 0x4c, 0xbe, 0x94, 0x98, 0x70, 0xbe,
  0x70, 0x20, 0x18, 0xbe, 0x9c, 0x61, 0x6c, 0x3e, 0xb5, 0xcf, 0x14, 0x3e,
  0xc1, 0xdd, 0x6f, 0xbd, 0x8b, 0x82, 0x3d, 0x3e, 0xc7, 0xe7, 0x3d, 0xbe,
  0xc5, 0xcb, 0x64, 0x3e, 0xb9, 0x07, 0x3a, 0x3e, 0x64, 0xe7, 0x67, 0x3e,
  0x98, 0x02, 0xa4, 0x3e, 0xf1, 0x23, 0x65, 0xbd, 0x07, 0x38, 0x77, 0x3e,
  0x69, 0xa3, 0x22, 0xbd, 0x8e, 0xbb, 0x1d, 0xbe, 0x7c, 0xdf, 0x8f, 0x3b,
  0x10, 0x0f, 0x5c, 0xbe, 0xa1, 0x2a, 0x8c, 0x3e, 0x5b, 0x01, 0xee, 0x3d,
  0x0f, 0x73, 0xcc, 0x3d, 0x10, 0x36, 0xc1, 0xbd, 0x83, 0xff, 0xb9, 0x3c,
  0x61, 0xb2, 0x12, 0x3e, 0x7c, 0x89, 0x80, 0x3d, 0x36, 0x7a, 0x93, 0xbd,
  0x66, 0xa7, 0x55, 0x3e, 0xa5, 0xd6, 0xd6, 0xbb, 0x28, 0xe0, 0x3f, 0x3d,
  0x85, 0xe1, 0x6f, 0x3e, 0x59, 0x69, 0x5e, 0x3e, 0x39, 0xd9, 0x2b, 0x3e,
  0xae, 0xf5, 0x8e, 0x3e, 0xb8, 0x84, 0x88, 0xbd, 0xbf, 0x22, 0xc7, 0x3d,
  0xa3, 0x2b, 0x98, 0x3e, 0x63, 0xb5, 0xe7, 0xbd, 0x74, 0x0b, 0x4a, 0x3e,
  0x1c, 0x20, 0x82, 0x3e, 0xd5, 0x7e, 0x2d, 0x3d, 0xac, 0xb2, 0x33, 0x3e,
  0xd9, 0x79, 0xc9, 0x3c, 0xb6, 0x80, 0xcc, 0x3c, 0x3e, 0xea, 0xca, 0xbd,
  0x5c, 0x27, 0xea, 0xbd, 0x4b, 0x83, 0x3b, 0x3e, 0xa4, 0x9b, 0x4d, 0x3e,
  0x87, 0xcc, 0x7f, 0x3e, 0x9b, 0x12, 0x39, 0x3e, 0xfc, 0xff, 0x13, 0xbe,
  0x97, 0x5a, 0xff, 0x3d, 0x2b, 0x4f, 0x18, 0xbe, 0x69, 0x6b, 0x4b, 0x3b,
  0xc4, 0x80, 0xde, 0x3d, 0x78, 0x76, 0x05, 0x3e, 0xae, 0x13, 0xe4, 0x3d,
  0xd4, 0x88, 0x2e, 0x3e, 0xe3, 0xda, 0x5a, 0x3e, 0xfc, 0x5d, 0xb2, 0x3d,
  0x6c, 0xb5, 0x7d, 0x3d, 0xbf, 0x85, 0x04, 0xbe, 0x31, 0xc8, 0x7a, 0x3d,
  0x99, 0xa9, 0x21, 0xbd, 0xf1, 0x2e, 0x94, 0x3e, 0x13, 0x85, 0x49, 0x3e,
  0xb1, 0x0c, 0x2b, 0x3d, 0x93, 0x74, 0x40, 0xbd, 0xa8, 0x53, 0x75, 0x3e,
  0xd8, 0x33, 0xf3, 0x3d, 0x03, 0x4c, 0x4b, 0xbe, 0x21, 0x1a, 0x28, 0xbe,
  0x6a, 0xa8, 0x46, 0x3e, 0x6d, 0x1a, 0x81, 0xbe, 0xcb, 0x14, 0x23, 0x3e,
  0x0c, 0xfc, 0x31, 0x3d, 0xfe, 0x23, 0x7b, 0x3e, 0x53, 0x0c, 0x1c, 0x3e,
  0x61, 0x36, 0xd8, 0x3d, 0x5f, 0x0e, 0xc5, 0xbc, 0x69, 0x5d, 0x65, 0x3d,
  0x3e, 0x0a, 0x20, 0xbe, 0x06, 0xf2, 0x1e, 0xbe, 0x0e, 0xd9, 0x1b, 0xbe,
  0x63, 0xf8, 0x10, 0x3e, 0x13, 0xb8, 0xaa, 0xbd, 0xec, 0xba, 0x04, 0xbe,
  0x6f, 0x39, 0xd1, 0xbd, 0xa1, 0x9f, 0x21, 0x3e, 0x04, 0xca, 0x08, 0x3e,
  0xd5, 0xb0, 0xa7, 0x3d, 0x06, 0x8d, 0x8a, 0x3e, 0x20, 0x10, 0x52, 0x3e,
  0x67, 0xe7, 0x3b, 0x3e, 0x91, 0xa6, 0x80, 0x3e, 0x7a, 0xbb, 0x9d, 0x3d,
  0x86, 0x37, 0xcf, 0x3c, 0x14, 0x22, 0x26, 0xbd, 0x90, 0x1d, 0x83, 0x3e,
  0xfe, 0x0c, 0xf5, 0xbd, 0x79, 0x41, 0x99, 0x3e, 0x12, 0x6b, 0x2d, 0x3e,
  0x2f, 0x87, 0x7a, 0x3d, 0x75, 0x10, 0x31, 0xbe, 0xf0, 0xdd, 0xfb, 0xbc,
  0x34, 0xf7, 0xd6, 0xbd, 0x33, 0x0c, 0xbe, 0xbd, 0x0f, 0xdf, 0x7e, 0x3d,
  0x0c, 0x02, 0x26, 0xbd, 0xf7, 0x37, 0x03, 0xbe, 0xb9, 0x15, 0x23, 0xbe,
  0xde, 0x97, 0x2a, 0x3e, 0x41, 0xe1, 0x15, 0xbe, 0xed, 0xff, 0xfe, 0xbd,
  0x6a, 0x15, 0x86, 0x3e, 0xd8, 0x69, 0x03, 0xbe, 0x3a, 0x58, 0xd2, 0x3d,
  0xe2, 0xe5, 0x7c, 0x3d, 0x8a, 0x02, 0x90, 0x3e, 0x10, 0xf9, 0x25, 0x3e,
  0x04, 0x33, 0x99, 0x3e, 0xef, 0x41, 0xfa, 0x3d, 0xc6, 0x13, 0x72, 0x3e,
  0x86, 0x9f, 0x8d, 0x3e, 0x80, 0x89, 0x8f, 0x3e, 0xfd, 0xf9, 0x90, 0x3e,
  0xb7, 0x25, 0x4e, 0x3e, 0x2c, 0x3e, 0x4d, 0xbd, 0x5b, 0x3a, 0x42, 0xbe,
  0x4b, 0xcd, 0x33, 0xbe, 0x3b, 0x40, 0x95, 0xbd, 0x41, 0xa5, 0x92, 0x3d,
  0x43, 0x94, 0x83, 0x3e, 0xb2, 0x74, 0xaf, 0x3d, 0x0b, 0x25, 0x62, 0x3e,
  0xbe, 0x44, 0x9b, 0x3d, 0x73, 0xc9, 0x0c, 0xbe, 0x86, 0x88, 0x7a, 0x3e,
  0x0b, 0x42, 0x0f, 0xbe, 0x9e, 0x1c, 0x83, 0x3d, 0xd6, 0x05, 0xaf, 0x3e,
  0xa8, 0x95, 0xf1, 0x3d, 0xdd, 0xb9, 0xa8, 0xbd, 0x8e, 0xf0, 0xdd, 0x3d,
  0x08, 0xa9, 0xa2, 0xbc, 0xb2, 0x15, 0xbd, 0xbb, 0x73, 0xa1, 0x36, 0xbe,
  0x26, 0x3f, 0xb7, 0xbd, 0x79, 0x4f, 0x97, 0x3d, 0x27, 0x11, 0xcf, 0xbc,
  0x27, 0xf2, 0x3f, 0xbe, 0x4d, 0xfa, 0xc2, 0x3b, 0x66, 0xc4, 0x95, 0x3d,
  0x9c, 0x89, 0x55, 0x3e, 0x8c, 0x7d, 0x44, 0x3d, 0x8a, 0x78, 0x2c, 0x3e,
  0x6a, 0xd9, 0x76, 0x3e, 0xc3, 0x5e, 0x64, 0xbd, 0x4e, 0xf9, 0x1d, 0xbe,
  0xd0, 0x7a, 0xff, 0x3d, 0x69, 0x28, 0x4d, 0x3e, 0xda, 0xb4, 0x66, 0x3e,
  0x81, 0xb5, 0x15, 0xbe, 0xcc, 0xce, 0x9e, 0x3d, 0x4e, 0xe9, 0x8a, 0x3e,
  0x20, 0x91, 0x33, 0x3d, 0xf9, 0x46, 0x48, 0x3e, 0x41, 0x4d, 0x81, 0x3e,
  0x88, 0x36, 0x17, 0xbe, 0x56, 0x3d, 0x94, 0x3d, 0x26, 0x8b, 0x51, 0x3e,
  0xbe, 0xb1, 0x73, 0x3e, 0x3f, 0x16, 0x42, 0x3e, 0x60, 0xcc, 0x4c, 0x3e,
  0x4b, 0x64, 0xbb, 0x3d, 0x20, 0xef, 0x8b, 0xbb, 0x1c, 0x23, 0xa6, 0x3d,
  0x01, 0x72, 0x78, 0x3d, 0xc8, 0x42, 0x6e, 0x3e, 0x16, 0x1f, 0x97, 0x3d,
  0x82, 0x45, 0x1e, 0x3e, 0x35, 0xfe, 0xae, 0x3d, 0x92, 0x00, 0x9c, 0xbb,
  0x96, 0x24, 0xb7, 0xbd, 0xfb, 0x9a, 0xe1, 0x3d, 0x3c, 0x1a, 0x5d, 0x39,
  0x47, 0x6a, 0x4b, 0xbe, 0x54, 0xdd, 0xe1, 0x3d, 0x8c, 0x86, 0x5b, 0x3d,
  0x7c, 0x51, 0x1b, 0x3e, 0xdc, 0x4d, 0x1f, 0x3e, 0xa2, 0x40, 0x60, 0x3e,
  0x83, 0x24, 0x31, 0x3e, 0xc4, 0x35, 0xeb, 0xb9, 0x06, 0x71, 0xd6, 0xbd,
  0xbb, 0xd1, 0x3b, 0xbe, 0x91, 0xd1, 0x87, 0x3d, 0x72, 0x93, 0xd3, 0xbd,
  0x54, 0xa8, 0xb2, 0xbd, 0x0b, 0x6a, 0x15, 0x3e, 0x07, 0x38, 0xae, 0xbd,
  0x5a, 0x69, 0xe0, 0xbd, 0xb5, 0xa4, 0xaf, 0x3d, 0x92, 0x67, 0x69, 0xbe,
  0x6d, 0xef, 0x97, 0x3e, 0xd3, 0x85, 0x9d, 0x3c, 0x79, 0xe7, 0x47, 0x3e,
  0x68, 0xc4, 0x77, 0x3e, 0x27, 0xf4, 0x65, 0x3e, 0xa6, 0x40, 0x9e, 0x3e,
  0x3a, 0x50, 0x51, 0xbe, 0xba, 0xe8, 0x8c, 0xbe, 0x02, 0x8e, 0x08, 0xbd,
  0x71, 0x4b, 0xa6, 0xbd, 0x50, 0xd3, 0xe1, 0x3d, 0xf9, 0xf1, 0x09, 0x3e,
  0xbc, 0xaf, 0x77, 0x3e, 0x3d, 0x6b, 0x7d, 0x3e, 0x1f, 0xac, 0x77, 0xbe,
  0xff, 0x67, 0xe4, 0xbd, 0x89, 0x0f, 0x30, 0xbe, 0xe8, 0x1c, 0x1e, 0xbe,
  0x0d, 0xcb, 0x4e, 0xbe, 0xeb, 0xaf, 0x99, 0xbc, 0x84, 0x9b, 0x86, 0x3d,
  0x2d, 0x69, 0x82, 0x3e, 0xdc, 0x54, 0x97, 0x3d, 0x6f, 0x42, 0x3b, 0xbe,
  0xb3, 0x4f, 0x5b, 0x3d, 0x78, 0x9e, 0x97, 0x3e, 0x84, 0xd2, 0xd0, 0xbd,
  0x68, 0x0d, 0xfd, 0x3d, 0x9f, 0xaa, 0x86, 0x3d, 0xd6, 0x5f, 0x0b, 0xbe,
  0x92, 0x43, 0xd0, 0xbd, 0x6a, 0x15, 0xc1, 0x3d, 0x82, 0x65, 0x03, 0xbe,
  0x87, 0x34, 0x07, 0xbb, 0x99, 0xbf, 0x48, 0x3e, 0x31, 0x21, 0x91, 0xbe,
  0x92, 0xc2, 0x0f, 0x3d, 0x70, 0x72, 0xbe, 0x3d, 0x6b, 0x6c, 0xfe, 0x3d,
  0x85, 0x26, 0x3a, 0x3e, 0x43, 0xeb, 0x99, 0x3e, 0x0c, 0xdf, 0xf2, 0xbd,
  0x23, 0x92, 0x69, 0x3e, 0x03, 0x95, 0x7a, 0xbe, 0x0c, 0x03, 0x56, 0x3e,
  0xd4, 0x40, 0x5f, 0xbd, 0x6f, 0x7e, 0xce, 0xbd, 0xbe, 0x1f, 0x3b, 0xbd,
  0x14, 0xb3, 0x9f, 0x3e, 0xb4, 0x30, 0x90, 0xba, 0xa4, 0x3f, 0x51, 0x3e,
  0xb6, 0x69, 0x14, 0xbe, 0x23, 0x2b, 0x35, 0xbd, 0x31, 0x12, 0xee, 0xbd,
  0x52, 0x06, 0xdb, 0x3c, 0xf3, 0x35, 0x86, 0x3e, 0xaf, 0x4a, 0x1b, 0x3e,
  0x73, 0x07, 0x13, 0x3e, 0x6b, 0xdd, 0x60, 0x3e, 0xdb, 0xd0, 0x34, 0xbe,
  0xb9, 0x89, 0xe4, 0x3d, 0xee, 0x8f, 0x04, 0xbd, 0x3c, 0x92, 0x8d, 0x3c,
  0xc8, 0x5c, 0x2e, 0x3e, 0xdc, 0xe4, 0x18, 0x3e, 0x5d, 0x01, 0x44, 0xbe,
  0xa3, 0xe1, 0x09, 0x3d, 0xcc, 0xf1, 0x90, 0x3d, 0xc1, 0x34, 0x13, 0x3e,
  0x74, 0x3b, 0x08, 0xbe, 0xf6, 0x63, 0x1a, 0xbe, 0x27, 0x8c, 0x25, 0x3e,
  0x9b, 0xb5, 0x27, 0xbe, 0x7e, 0x6d, 0x37, 0xbe, 0x0f, 0xbf, 0xdc, 0xbd,
  0x96, 0xd0, 0x15, 0xbe, 0x0e, 0x8d, 0x6e, 0x3d, 0xa5, 0x94, 0xdd, 0xbd,
  0x13, 0xe2, 0xda, 0x3c, 0x51, 0xb1, 0x10, 0x3e, 0x72, 0xb1, 0x89, 0xbe,
  0xd5, 0xde, 0x66, 0xbe, 0xc7, 0x4c, 0xed, 0x3d, 0x4b, 0x38, 0xba, 0xbc,
  0x5d, 0xd0, 0x53, 0x3e, 0xc4, 0x96, 0x0d, 0xbe, 0x90, 0xfc, 0x02, 0xb9,
  0x6d, 0x90, 0x99, 0x3e, 0xa0, 0x82, 0x5f, 0x3d, 0xe2, 0xc1, 0xff, 0xff,
  0x10, 0x00, 0x00, 0x00, 0x0a, 0x00, 0x00, 0x00, 0x1c, 0x00, 0x00, 0x00,
  0x38, 0x00, 0x00, 0x00, 0x04, 0x00, 0x00, 0x00, 0x10, 0x00, 0x00, 0x00,
  0x04, 0x00, 0x00, 0x00, 0x01, 0x00, 0x00, 0x00, 0x08, 0x00, 0x00, 0x00,
  0x1a, 0x00, 0x00, 0x00, 0x73, 0x65, 0x71, 0x75, 0x65, 0x6e, 0x74, 0x69,
  0x61, 0x6c, 0x2f, 0x63, 0x6f, 0x6e, 0x76, 0x32, 0x64, 0x5f, 0x31, 0x2f,
  0x43, 0x6f, 0x6e, 0x76, 0x32, 0x44, 0x00, 0x00, 0x58, 0xc1, 0xff, 0xff,
  0x62, 0xc2, 0xff, 0xff, 0x04, 0x00, 0x00, 0x00, 0x80, 0x01, 0x00, 0x00,
  0xc0, 0x83, 0x6e, 0x3c, 0xa5, 0xea, 0x45, 0x3d, 0x4a, 0x17, 0x03, 0x3d,
  0xb5, 0x0f, 0x50, 0x3e, 0x12, 0x98, 0x0b, 0xbe, 0xbb, 0x1b, 0x42, 0x3e,
  0x88, 0xb0, 0x9a, 0x3d, 0x52, 0xd3, 0x23, 0x3e, 0x24, 0xd5, 0x0b, 0xbd,
  0xbd, 0xc6, 0x3d, 0x3e, 0xbb, 0x19, 0xe8, 0x3d, 0x90, 0xe0, 0x03, 0x3e,
  0x3a, 0x61, 0x7d, 0x3d, 0xd6, 0x43, 0x2b, 0x3e, 0xf8, 0x5b, 0x32, 0xbe,
  0x06, 0x70, 0x75, 0xbc, 0x21, 0x69, 0x99, 0x3d, 0xfa, 0x41, 0x90, 0xbe,
  0xa5, 0x91, 0x88, 0xbd, 0x95, 0x99, 0x8b, 0x3e, 0x2e, 0xba, 0xde, 0x3d,
  0x23, 0x3b, 0x5b, 0x3c, 0xef, 0xf4, 0x71, 0x3d, 0xca, 0x18, 0xf8, 0x3d,
  0xbf, 0xe0, 0x48, 0x3e, 0x78, 0x63, 0x8e, 0xbb, 0xd4, 0x09, 0x86, 0xbe,
  0x57, 0xbe, 0x72, 0x3e, 0x6d, 0x67, 0x96, 0xbd, 0xef, 0x3c, 0x81, 0xbe,
  0x5c, 0x09, 0xed, 0xbd, 0xfc, 0x30, 0xa3, 0xbe, 0x84, 0xfd, 0x1a, 0xbe,
  0xde, 0x2c, 0xae, 0x3c, 0x22, 0x82, 0x35, 0xbe, 0x27, 0x43, 0x3a, 0xbe,
  0x7b, 0x58, 0x44, 0xbc, 0xf4, 0x4c, 0x8d, 0x3e, 0x00, 0xa4, 0x5f, 0xbe,
  0xc3, 0xb3, 0x9d, 0xbd, 0x89, 0x74, 0xa1, 0xbd, 0x27, 0x89, 0x3a, 0xbc,
  0xf1, 0x7d, 0x0c, 0x3d, 0x92, 0xee, 0x4a, 0x3e, 0x69, 0x10, 0x12, 0xbe,
  0x68, 0x39, 0x0a, 0x3e, 0x65, 0x54, 0x90, 0x3e, 0xd3, 0x71, 0xce, 0x3d,
  0x67, 0x61, 0x86, 0xbd, 0x40, 0x11, 0xf6, 0xbc, 0x3a, 0x6b, 0x67, 0x3e,
  0x4f, 0xfa, 0x20, 0x3d, 0xd7, 0xe3, 0x26, 0xbe, 0x3a, 0xc0, 0x3e, 0xbd,
  0xaa, 0x43, 0x8b, 0xbe, 0x49, 0xd1, 0x40, 0xbe, 0x42, 0xcd, 0x31, 0xbe,
  0x95, 0x61, 0x4d, 0xbe, 0x4c, 0xc6, 0x37, 0xbe, 0x82, 0x6b, 0xf8, 0x3d,
  0xef, 0xa6, 0x4b, 0x3d, 0x51, 0xe0, 0xd1, 0xbd, 0x56, 0x9d, 0xd6, 0xbc,
  0x02, 0x14, 0x02, 0xbd, 0xe1, 0xaa, 0x79, 0xbd, 0x88, 0x06, 0x7b, 0x3e,
  0xfa, 0xc7, 0x77, 0x3e, 0x9f, 0xab, 0x55, 0x3e, 0x81, 0x80, 0x62, 0x3b,
  0x48, 0x0e, 0xff, 0xbc, 0xdb, 0xc5, 0x1b, 0x3e, 0xa5, 0x39, 0xb6, 0x3d,
  0x8c, 0x99, 0x36, 0x3e, 0x48, 0x35, 0x8a, 0xbd, 0x15, 0x6c, 0x98, 0x3e,
  0x17, 0x0c, 0x0d, 0x3e, 0xfb, 0xde, 0x02, 0xbc, 0xef, 0x71, 0x83, 0x3c,
  0xe2, 0x7d, 0xfe, 0xbd, 0x77, 0x0a, 0x08, 0x3e, 0x59, 0x1a, 0x84, 0x3e,
  0xce, 0x52, 0x19, 0x3e, 0x81, 0xe4, 0x61, 0x3e, 0x4c, 0x97, 0xce, 0xbd,
  0xf6, 0xe4, 0x61, 0x3d, 0xde, 0x06, 0x29, 0xbe, 0x4f, 0x19, 0x90, 0x3d,
  0xb7, 0xc6, 0xe6, 0x3d, 0xd8, 0xb9, 0x0d, 0x3e, 0xd6, 0xf5, 0x5f, 0x3e,
  0x39, 0x2d, 0x12, 0xbe, 0x02, 0xe0, 0x9b, 0xbe, 0xea, 0x39, 0x8f, 0xbd,
  0x92, 0x5f, 0x0e, 0x3e, 0xfd, 0x29, 0x7a, 0xbe, 0x33, 0xc7, 0xad, 0x3e,
  0xba, 0xc3, 0xff, 0xff, 0x10, 0x00, 0x00, 0x00, 0x09, 0x00, 0x00, 0x00,
  0x1c, 0x00, 0x00, 0x00, 0x38, 0x00, 0x00, 0x00, 0x04, 0x00, 0x00, 0x00,
  0x08, 0x00, 0x00, 0x00, 0x04, 0x00, 0x00, 0x00, 0x03, 0x00, 0x00, 0x00,
  0x01, 0x00, 0x00, 0x00, 0x18, 0x00, 0x00, 0x00, 0x73, 0x65, 0x71, 0x75,
  0x65, 0x6e, 0x74, 0x69, 0x61, 0x6c, 0x2f, 0x63, 0x6f, 0x6e, 0x76, 0x32,
  0x64, 0x2f, 0x43, 0x6f, 0x6e, 0x76, 0x32, 0x44, 0x00, 0x00, 0x00, 0x00,
  0x30, 0xc3, 0xff, 0xff, 0x3a, 0xc4, 0xff, 0xff, 0x04, 0x00, 0x00, 0x00,
  0x00, 0x01, 0x00, 0x00, 0xd4, 0x1f, 0xc2, 0xbd, 0x2e, 0x45, 0xbd, 0xbe,
  0x42, 0x90, 0x14, 0x3f, 0xfb, 0x14, 0x61, 0xbe, 0x42, 0x9d, 0xd3, 0x3e,
  0x5b, 0x6a, 0xa1, 0x3d, 0xe7, 0xd0, 0xd7, 0xbd, 0x4f, 0xf1, 0x0c, 0xbe,
  0xdc, 0xc9, 0xa5, 0x3e, 0x26, 0xec, 0xdb, 0x3e, 0xb9, 0x07, 0x06, 0xbf,
  0x02, 0x8c, 0x86, 0x3e, 0xd4, 0xff, 0x16, 0x3e, 0x25, 0x53, 0x20, 0x3f,
  0xe0, 0x37, 0xfe, 0x3c, 0x39, 0x64, 0xc5, 0xbd, 0x8f, 0x8c, 0x8c, 0x3c,
  0x80, 0xe2, 0x48, 0x3e, 0xb3, 0x30, 0x1e, 0xbf, 0xa6, 0x78, 0x17, 0x3f,
  0x9f, 0x9d, 0x1b, 0xbf, 0x44, 0x39, 0xef, 0x3e, 0x14, 0x38, 0x1b, 0xbf,
  0x15, 0x4b, 0xcd, 0x3e, 0xda, 0xa3, 0xa0, 0x3d, 0x5e, 0x4d, 0x56, 0x3e,
  0x4a, 0x5b, 0x8b, 0xbe, 0x3c, 0x11, 0xa1, 0x3d, 0xb8, 0x26, 0xb2, 0xbe,
  0xd4, 0xc7, 0x9a, 0xbe, 0xee, 0x8a, 0x50, 0xbe, 0xf8, 0x0e, 0x2d, 0x3e,
  0x30, 0xd7, 0xe1, 0xbe, 0xab, 0x29, 0x8d, 0xbd, 0x92, 0x5c, 0xfa, 0x3e,
  0x59, 0x7f, 0x05, 0x3e, 0xfc, 0xdb, 0x4d, 0x3e, 0xe3, 0xd0, 0x06, 0xbf,
  0x1a, 0x65, 0x09, 0xbf, 0xa9, 0x78, 0x14, 0x3e, 0x92, 0x75, 0x02, 0x3f,
  0xf9, 0x17, 0x17, 0xbe, 0xf4, 0xba, 0x90, 0x3d, 0x06, 0x9a, 0xbe, 0x3c,
  0x00, 0x51, 0xe0, 0x3d, 0x55, 0x4b, 0x2d, 0x3e, 0x00, 0x69, 0x58, 0xbb,
  0x22, 0x07, 0x17, 0xbf, 0x38, 0x7d, 0x7d, 0x3e, 0x59, 0x7a, 0xb9, 0x3e,
  0xf6, 0xb8, 0xac, 0xbe, 0xac, 0x56, 0xf0, 0xbc, 0xc4, 0x5a, 0xd1, 0x3e,
  0xc5, 0x3a, 0xaf, 0xbb, 0xe8, 0xaa, 0x29, 0xbe, 0x53, 0x97, 0x03, 0xbf,
  0x53, 0x6a, 0x2c, 0x3e, 0x82, 0x54, 0x9d, 0xbe, 0xf9, 0xa8, 0xc8, 0x3e,
  0x74, 0xf8, 0x06, 0xbf, 0x30, 0x7a, 0xed, 0x3e, 0x34, 0x32, 0x8a, 0xbd,
  0x08, 0x3f, 0x7e, 0x3e, 0x06, 0x5c, 0x8b, 0x3e, 0x12, 0xc5, 0xff, 0xff,
  0x10, 0x00, 0x00, 0x00, 0x08, 0x00, 0x00, 0x00, 0x14, 0x00, 0x00, 0x00,
  0x30, 0x00, 0x00, 0x00, 0x02, 0x00, 0x00, 0x00, 0x04, 0x00, 0x00, 0x00,
  0x10, 0x00, 0x00, 0x00, 0x19, 0x00, 0x00, 0x00, 0x73, 0x65, 0x71, 0x75,
  0x65, 0x6e, 0x74, 0x69, 0x61, 0x6c, 0x2f, 0x64, 0x65, 0x6e, 0x73, 0x65,
  0x5f, 0x31, 0x2f, 0x4d, 0x61, 0x74, 0x4d, 0x75, 0x6c, 0x00, 0x00, 0x00,
  0x80, 0xc4, 0xff, 0xff, 0x8a, 0xc5, 0xff, 0xff, 0x04, 0x00, 0x00, 0x00,
  0x00, 0x38, 0x00, 0x00, 0xcc, 0xdd, 0xf0, 0x3c, 0x4f, 0x18, 0x6a, 0x3d,
  0xd9, 0x17, 0xc0, 0xbd, 0x7e, 0x24, 0x8e, 0x3d, 0x54, 0x5f, 0x3e, 0x3d,
  0xf0, 0x21, 0x8f, 0xbc, 0xa4, 0xa2, 0x9b, 0x3d, 0xff, 0x22, 0x17, 0xbe,
  0x7c, 0x39, 0xa3, 0x3d, 0x2f, 0xd7, 0xa5, 0xbd, 0xf6, 0x58, 0x47, 0xbc,
  0x48, 0x23, 0x89, 0xbb, 0xe6, 0x9a, 0x1b, 0x3a, 0x18, 0xc2, 0x0d, 0x3c,
  0x50, 0xda, 0xd6, 0x3d, 0x3d, 0x95, 0xf8, 0xba, 0x04, 0xed, 0xc7, 0x3d,
  0x49, 0xb6, 0x90, 0xbd, 0x51, 0x8e, 0x21, 0xbe, 0x74, 0x14, 0x4f, 0xbd,
  0xf9, 0x7c, 0xaf, 0xbd, 0xd2, 0xb6, 0x9e, 0xbd, 0xf9, 0x6e, 0x08, 0x3e,
  0x63, 0xe6, 0x88, 0x3d, 0x69, 0x84, 0x6a, 0xbd, 0x86, 0x25, 0xfe, 0xbd,
  0xaa, 0xb2, 0xa8, 0xbd, 0xe2, 0x84, 0xd8, 0x3d, 0xd0, 0x0d, 0xa6, 0xbc,
  0x68, 0xa4, 0xca, 0xbc, 0x0c, 0xc7, 0xb8, 0xbc, 0x79, 0x79, 0x11, 0xbe,
  0xf3, 0xc0, 0x8b, 0xbd, 0x62, 0x7d, 0xf7, 0xbd, 0x60, 0x7e, 0xb2, 0xbd,
  0x1a, 0x78, 0x40, 0xbb, 0x0b, 0x0a, 0xd5, 0x3d, 0x5d, 0xd2, 0x03, 0x3e,
  0x38, 0xdf, 0x7f, 0x3d, 0x81, 0x8a, 0xa0, 0xbd, 0xc8, 0xa6, 0x91, 0x3d,
  0x54, 0x52, 0x02, 0x3e, 0xbb, 0xed, 0xb9, 0xbd, 0x4f, 0x18, 0x93, 0x3d,
  0x5c, 0x39, 0xfa, 0x3c, 0x50, 0xc9, 0x20, 0xbe, 0x8b, 0x49, 0x0e, 0xbe,
  0x39, 0x69, 0x3b, 0xbd, 0x1a, 0xc1, 0xf3, 0x3d, 0x95, 0xeb, 0xac, 0xbd,
  0xf5, 0x4d, 0xb2, 0xbd, 0xee, 0xfe, 0xc2, 0xbc, 0x01, 0xc7, 0x23, 0xbe,
  0xa9, 0xf0, 0xb9, 0xbd, 0x80, 0xf7, 0xc8, 0x3c, 0x40, 0xbe, 0x26, 0xbd,
  0xe5, 0xd3, 0x11, 0xbd, 0xc7, 0xb3, 0x62, 0x3b, 0xcf, 0x3b, 0x48, 0xbc,
  0xc0, 0x7a, 0x17, 0x3e, 0x73, 0x10, 0xb0, 0x3d, 0x13, 0xa0, 0x76, 0x3d,
  0xa6, 0x98, 0x13, 0x3d, 0xb3, 0x68, 0xf5, 0xbd, 0xd7, 0xa6, 0x22, 0xbd,
  0x17, 0x02, 0xcc, 0x3c, 0x9c, 0x3f, 0xcd, 0xbd, 0x2b, 0xa6, 0x1c, 0xbe,
  0x4e, 0x86, 0xfe, 0xbd, 0xf2, 0x51, 0xc5, 0x3d, 0xef, 0x10, 0x05, 0x3e,
  0x1e, 0x88, 0x48, 0x3d, 0x24, 0x43, 0xe8, 0xbd, 0xcb, 0x01, 0x6a, 0x3c,
  0x8c, 0x39, 0xdd, 0x3d, 0xba, 0xe7, 0xf8, 0x3d, 0x5b, 0x01, 0x56, 0x3d,
  0x7f, 0xd9, 0x19, 0xbe, 0x63, 0xc6, 0x52, 0xbd, 0x00, 0x84, 0x27, 0x3d,
  0xdc, 0x0e, 0x37, 0x3c, 0xff, 0xbc, 0xf6, 0xbd, 0x56, 0xfa, 0xd5, 0x3c,
  0xc7, 0xab, 0x4c, 0xbd, 0xea, 0x6b, 0x19, 0xbe, 0x3c, 0x84, 0xed, 0xbd,
  0x31, 0x3b, 0x12, 0xbe, 0x3f, 0x80, 0x0d, 0x3e, 0x66, 0xee, 0x74, 0xbd,
  0x33, 0x72, 0xf0, 0x3d, 0x64, 0xe4, 0x28, 0xbd, 0xe9, 0x82, 0x99, 0xbd,
  0x0b, 0x40, 0x97, 0xbd, 0xb0, 0x74, 0x18, 0x3e, 0xf0, 0x1c, 0x6c, 0x3c,
  0xef, 0x0f, 0x81, 0x3d, 0x26, 0x6b, 0x80, 0x3d, 0x68, 0xfe, 0x9f, 0xbd,
  0x1b, 0x83, 0x8a, 0xbb, 0x91, 0xe3, 0x16, 0x3e, 0xc1, 0x05, 0xe0, 0x3d,
  0x28, 0xde, 0x8b, 0xbc, 0xe8, 0x30, 0xb6, 0x3d, 0x33, 0x8a, 0xbf, 0x3d,
  0xc9, 0xe0, 0x21, 0xbe, 0xdc, 0x46, 0x50, 0x3d, 0xaf, 0xcd, 0xb1, 0xbc,
  0xc2, 0xc6, 0x07, 0x3e, 0xd5, 0x45, 0xee, 0xbc, 0xb6, 0x2c, 0x1c, 0xbe,
  0xab, 0x21, 0x24, 0xbe, 0x8d, 0x77, 0xd9, 0xbd, 0x9c, 0x86, 0xdb, 0x3d,
  0xf3, 0x32, 0xfc, 0xbd, 0x01, 0xa5, 0x1b, 0x3e, 0x03, 0x5a, 0xcc, 0x3c,
  0xb5, 0x5c, 0x9c, 0x3d, 0x2b, 0x94, 0x00, 0x3e, 0xd3, 0x4c, 0x07, 0x3e,
  0xf1, 0xba, 0x85, 0xbd, 0xa9, 0x3c, 0x30, 0xbd, 0xee, 0x23, 0xe6, 0xbd,
  0xd3, 0xe2, 0xcd, 0x3d, 0xe7, 0x99, 0x45, 0x3d, 0x02, 0x5c, 0x06, 0x3e,
  0xa4, 0x82, 0xa0, 0x3d, 0xeb, 0xc9, 0xef, 0x3c, 0x11, 0xbd, 0x84, 0x3d,
  0x8c, 0x5d, 0xd1, 0xbc, 0x26, 0xf4, 0xb9, 0xbd, 0x75, 0x4d, 0xbc, 0x3d,
  0x6c, 0xbe, 0x85, 0x3c, 0x75, 0x69, 0x94, 0xbd, 0xf0, 0x6c, 0x8b, 0x3c,
  0x96, 0x44, 0x8e, 0xbd, 0x40, 0x5a, 0xd1, 0x3d, 0x68, 0x12, 0xd0, 0x3c,
  0x80, 0xd5, 0x14, 0x3e, 0x21, 0x82, 0xb5, 0x3d, 0xd0, 0xa2, 0xa1, 0x3d,
  0x30, 0x2e, 0x11, 0x3e, 0x61, 0xc0, 0x73, 0x3d, 0xb7, 0xce, 0x74, 0x3d,
  0xb2, 0xf3, 0x11, 0x3e, 0xbc, 0xd0, 0x46, 0xbd, 0xf3, 0xd9, 0x8e, 0xbd,
  0x68, 0x9e, 0x17, 0x3e, 0x84, 0x96, 0xf4, 0xbd, 0x63, 0x27, 0x9b, 0x3c,
  0x00, 0x27, 0x0e, 0x3a, 0x78, 0x6e, 0x88, 0xbd, 0x12, 0x1b, 0x52, 0xbd,
  0x6e, 0x9a, 0x17, 0xbe, 0x27, 0x2f, 0x11, 0xbe, 0x47, 0x61, 0x85, 0x3d,
  0x6d, 0x80, 0xf4, 0x3d, 0xbd, 0x55, 0x99, 0xbd, 0xec, 0xfe, 0xac, 0x3d,
  0x0d, 0xf5, 0x43, 0xbd, 0xa6, 0x69, 0x05, 0xbe, 0x85, 0xf3, 0xa7, 0x3b,
  0x30, 0x4d, 0x14, 0xbd, 0x2b, 0x26, 0x17, 0xbe, 0x69, 0x98, 0xe9, 0xbc,
  0x0d, 0xb3, 0x16, 0x3e, 0xc6, 0x6e, 0xc9, 0x3d, 0xb0, 0xe6, 0xce, 0xbd,
  0xec, 0xba, 0x89, 0xbd, 0x71, 0x79, 0x1a, 0x3e, 0xdf, 0x08, 0x18, 0xbe,
  0xa8, 0x56, 0x29, 0x3c, 0xc0, 0xb3, 0x0e, 0xbd, 0x58, 0x32, 0xfc, 0xbd,
  0x2c, 0xe7, 0x80, 0x3b, 0xc2, 0x57, 0xe3, 0x3d, 0x52, 0x68, 0xff, 0x3d,
  0x5c, 0x46, 0x91, 0x3c, 0x8b, 0xf3, 0x55, 0x3d, 0x53, 0x7a, 0x03, 0x3e,
  0x81, 0x81, 0xb8, 0x3d, 0xb6, 0xc6, 0xbe, 0x3d, 0x16, 0x6e, 0xde, 0x3d,
  0x8f, 0x74, 0x1e, 0x3e, 0xb0, 0x21, 0x89, 0xbd, 0xa2, 0x74, 0x94, 0x3b,
  0xbb, 0x32, 0x21, 0xbe, 0xd4, 0x82, 0xef, 0xbc, 0xfb, 0xff, 0x6c, 0x3d,
  0xe9, 0x73, 0xee, 0xbc, 0x18, 0xc4, 0xd5, 0xbc, 0x50, 0x11, 0x92, 0x3d,
  0x43, 0xde, 0x15, 0xbc, 0x79, 0xfe, 0x75, 0x3d, 0x0b, 0x1b, 0x36, 0x3d,
  0xd8, 0x52, 0xf6, 0x3c, 0x66, 0x2d, 0xba, 0xbd, 0x49, 0xee, 0x5c, 0xbc,
  0xd4, 0x9b, 0x05, 0xbd, 0xef, 0x37, 0x04, 0xbe, 0x2e, 0x37, 0xb3, 0x3d,
  0x87, 0x76, 0xf6, 0xbc, 0x68, 0x46, 0x6a, 0xbd, 0x8a, 0x8d, 0x21, 0xbd,
  0x3d, 0xc9, 0x87, 0xbd, 0x24, 0xdb, 0x6b, 0x3d, 0xfa, 0x9a, 0x1a, 0x3e,
  0x3d, 0x60, 0x1a, 0xbc, 0x92, 0x32, 0xb5, 0x3d, 0x11, 0x57, 0xf1, 0xbd,
  0x60, 0x9b, 0xc6, 0xbc, 0xa3, 0xc8, 0x8a, 0xbd, 0x80, 0xd7, 0x46, 0x3b,
  0xb9, 0xf4, 0x9c, 0x3c, 0x46, 0x0a, 0xa4, 0x3d, 0xdf, 0xd7, 0x18, 0x3e,
  0x84, 0x62, 0x18, 0xbe, 0x9d, 0xf6, 0x87, 0x3d, 0x97, 0x61, 0x23, 0xbd,
  0xa2, 0x65, 0xc3, 0xbc, 0xe4, 0xe9, 0x02, 0xbe, 0x31, 0xdd, 0xf2, 0xbd,
  0xe7, 0xe1, 0x88, 0xbd, 0xe6, 0x22, 0x95, 0x3a, 0x99, 0x0b, 0x1d, 0xbe,
  0xd9, 0xa4, 0xe2, 0xbb, 0x62, 0x61, 0x45, 0x3c, 0xd4, 0x81, 0xf1, 0x3d,
  0xa4, 0x96, 0xf7, 0x3d, 0xa0, 0x12, 0x1c, 0xbe, 0xda, 0x87, 0x9d, 0x3d,
  0xf0, 0xe8, 0x46, 0x3d, 0xb0, 0x6b, 0xf3, 0x3d, 0x91, 0xeb, 0xff, 0xbc,
  0x44, 0x8b, 0x80, 0xbc, 0x28, 0xa7, 0x66, 0x3e, 0x83, 0xb9, 0xcb, 0x3d,
  0xf0, 0x51, 0x81, 0xbd, 0x69, 0xbe, 0xaa, 0xbd, 0x17, 0x10, 0x86, 0x3b,
  0xec, 0x49, 0x41, 0x3d, 0x9d, 0xe8, 0x9d, 0x3d, 0x7c, 0xb1, 0x13, 0x3d,
  0x11, 0x34, 0x1f, 0x3e, 0x71, 0x31, 0xed, 0x3d, 0x7a, 0xf1, 0xd7, 0xbd,
  0xc4, 0x08, 0x74, 0x3d, 0x35, 0xb1, 0x01, 0x3e, 0xf4, 0x31, 0xcd, 0xbd,
  0x78, 0x43, 0x0d, 0x3e, 0xdb, 0x73, 0x5c, 0x3e, 0xdb, 0xb7, 0xfa, 0xbc,
  0xdb, 0x7f, 0x23, 0xbd, 0x74, 0x14, 0x80, 0xbd, 0xb0, 0x81, 0x8d, 0x3a,
  0x53, 0x4c, 0x40, 0x3e, 0x4f, 0x3e, 0x7d, 0x3d, 0xac, 0xa2, 0x53, 0x3d,
  0x02, 0x13, 0x9a, 0x3d, 0xbd, 0xb0, 0xac, 0x3d, 0x18, 0xb5, 0x13, 0x3e,
  0x5d, 0x84, 0xcd, 0xbc, 0xed, 0x98, 0x16, 0x3e, 0x66, 0xb7, 0xcf, 0x3d,
  0x10, 0xdc, 0x9b, 0x3d, 0xb3, 0x27, 0xe2, 0xbd, 0x00, 0x6a, 0x98, 0x3d,
  0xb5, 0x4d, 0x5a, 0x3d, 0x4b, 0x43, 0xd8, 0x3c, 0xa4, 0xe1, 0xcf, 0xbd,
  0x1b, 0x44, 0x3f, 0xbe, 0x7c, 0xa6, 0x68, 0x3e, 0x1a, 0xc4, 0x9a, 0x3d,
  0xf5, 0xfa, 0x41, 0xbe, 0x2f, 0x99, 0x29, 0x3e, 0x55, 0x17, 0x17, 0xbd,
  0x21, 0x4e, 0x57, 0x3e, 0xfa, 0x6b, 0x86, 0xbe, 0xff, 0xaa, 0x0a, 0x3e,
  0xb0, 0x4c, 0x21, 0x3c, 0xbc, 0x35, 0xa4, 0xbc, 0x38, 0xdc, 0x7c, 0xbc,
  0x6e, 0xea, 0x9e, 0xbc, 0x72, 0xe6, 0xf0, 0xbc, 0x8f, 0x31, 0xee, 0x3d,
  0x42, 0x7a, 0x1c, 0x3d, 0x17, 0x45, 0x35, 0xbe, 0x6c, 0xf5, 0x4f, 0x3e,
  0x83, 0x15, 0x61, 0x3e, 0xc9, 0x40, 0xda, 0x3b, 0xb6, 0x12, 0xb8, 0xbd,
  0x3f, 0x99, 0xc4, 0xbb, 0xa3, 0xbb, 0x41, 0x3d, 0x2a, 0xe2, 0x91, 0xbe,
  0xfb, 0x8d, 0x15, 0xbe, 0x2d, 0x70, 0x19, 0x3e, 0xb9, 0xf3, 0xf3, 0xbc,
  0x37, 0x08, 0x8e, 0x3d, 0x58, 0x08, 0xe6, 0x3c, 0x1b, 0xbe, 0x8f, 0xb9,
  0x84, 0xb9, 0xcf, 0x3d, 0xa3, 0xde, 0x8b, 0x3d, 0xc6, 0x54, 0xff, 0x3b,
  0xf5, 0x87, 0x23, 0x3e, 0xd2, 0xbc, 0x79, 0x3d, 0xb9, 0x30, 0x68, 0xbe,
  0x81, 0x5f, 0x2a, 0xbe, 0x53, 0x10, 0x11, 0xbd, 0x91, 0x09, 0x80, 0xbe,
  0xfe, 0xf8, 0x10, 0xbe, 0x00, 0xd0, 0x3e, 0x3c, 0xd2, 0x1c, 0xc2, 0xbd,
  0x7e, 0x08, 0x0e, 0xbe, 0xcb, 0x8f, 0x0d, 0xbd, 0xad, 0x3a, 0xae, 0x3d,
  0x12, 0xc5, 0xf3, 0xbd, 0x02, 0x4e, 0x61, 0x3d, 0x1b, 0xae, 0xb0, 0xbc,
  0x9f, 0x13, 0x1b, 0xbd, 0xa0, 0xd9, 0xd6, 0xbd, 0xf4, 0x96, 0x50, 0x3e,
  0xb3, 0x7b, 0x42, 0xbe, 0x1e, 0x6f, 0x1d, 0xbe, 0xba, 0x62, 0xf8, 0xbc,
  0x74, 0x9b, 0x99, 0xbd, 0xee, 0x4b, 0x30, 0xbe, 0x8a, 0x2b, 0xa7, 0x3d,
  0x16, 0x25, 0xd2, 0x3d, 0xfb, 0xb1, 0x4b, 0xbe, 0x35, 0x88, 0xa8, 0xbd,
  0x71, 0x73, 0x42, 0x3d, 0x0c, 0xde, 0xc0, 0x3c, 0x30, 0xa0, 0x3a, 0xbe,
  0x85, 0xba, 0x67, 0x3d, 0xb3, 0x2f, 0xa5, 0x3d, 0x0e, 0xa7, 0x10, 0x3e,
  0x40, 0xb2, 0x8a, 0x3d, 0xca, 0x83, 0xd6, 0xbd, 0x69, 0xf3, 0xac, 0xbd,
  0x7a, 0x25, 0x18, 0xbe, 0x00, 0xf6, 0x67, 0xbc, 0x19, 0xe5, 0xea, 0xbd,
  0x00, 0x24, 0xb9, 0x3a, 0x44, 0xd6, 0x75, 0xbd, 0xb2, 0xab, 0xa7, 0xbd,
  0x93, 0x9a, 0x3f, 0x3d, 0xc4, 0x8b, 0x0f, 0xbb, 0xde, 0x9a, 0x2d, 0xbd,
  0xbd, 0x9d, 0x71, 0x3d, 0xf0, 0x7a, 0x67, 0xbd, 0xa2, 0xf9, 0xca, 0xbd,
  0x99, 0x69, 0x8c, 0x3d, 0xd8, 0x44, 0x8c, 0x3d, 0x47, 0xb0, 0xbb, 0x3c,
  0xe5, 0xcb, 0x58, 0x3c, 0xf5, 0x94, 0x2b, 0xbe, 0xe8, 0x89, 0x92, 0x3d,
  0x8b, 0xaa, 0x7c, 0xbd, 0x86, 0xd8, 0xbf, 0x3d, 0x84, 0xe8, 0x7f, 0x3d,
  0x6c, 0xa7, 0x6a, 0x3d, 0xe5, 0xd0, 0xd8, 0xbc, 0xe0, 0x28, 0x1b, 0xbe,
  0x61, 0x92, 0xbd, 0xbd, 0x2f, 0xd0, 0x11, 0xbe, 0xbf, 0xda, 0xf1, 0xbc,
  0x04, 0x72, 0xf8, 0xbb, 0x95, 0xae, 0xbc, 0xbc, 0xde, 0x23, 0xe9, 0x3d,
  0xc4, 0x05, 0x48, 0xbe, 0x94, 0x44, 0x3c, 0x3d, 0xa5, 0x56, 0xe7, 0x3d,
  0xe4, 0xc6, 0x05, 0xbe, 0xdb, 0x00, 0x20, 0xbd, 0x3e, 0x03, 0x2e, 0xbd,
  0xe8, 0x01, 0x82, 0x3d, 0xee, 0x0d, 0x0d, 0xbe, 0x79, 0x69, 0x45, 0x3c,
  0x33, 0x49, 0x19, 0xbe, 0xf1, 0x64, 0x00, 0x3e, 0x30, 0xe9, 0x06, 0xbd,
  0x4a, 0x4d, 0x83, 0x3d, 0xb6, 0x6b, 0x04, 0x3d, 0xbc, 0x64, 0xf0, 0x3d,
  0xc0, 0xff, 0xe7, 0xbd, 0x25, 0xef, 0xfd, 0x3d, 0x86, 0xb6, 0xfc, 0x3d,
  0xc6, 0x0c, 0x6f, 0xbb, 0x09, 0xbc, 0x8a, 0xbe, 0xa2, 0x5a, 0xb0, 0x3d,
  0xef, 0x40, 0x18, 0x3e, 0x4a, 0xcf, 0xa8, 0x3d, 0x3c, 0xbd, 0x20, 0x3d,
  0xa0, 0x00, 0x34, 0x3c, 0x02, 0x42, 0xb7, 0x3d, 0xcb, 0x9d, 0x45, 0x3e,
  0xb6, 0x85, 0xcc, 0x3d, 0x1f, 0xc5, 0x82, 0xbd, 0xfb, 0xd2, 0x36, 0xbe,
  0xd2, 0xd3, 0x3e, 0x3d, 0x2c, 0x8c, 0x26, 0x3e, 0x43, 0x69, 0x31, 0x3e,
  0x44, 0x8e, 0x5e, 0x3d, 0x7d, 0xf9, 0xf1, 0x3c, 0x14, 0x9b, 0xa2, 0xbc,
  0xac, 0xf8, 0x55, 0xbd, 0xdb, 0x96, 0x0e, 0x3e, 0x94, 0x04, 0x4c, 0x3d,
  0x61, 0xbf, 0xd0, 0xbc, 0x12, 0xd0, 0x98, 0x3c, 0x7f, 0xf8, 0xfa, 0x3d,
  0x35, 0x8e, 0xcc, 0x3d, 0xa2, 0xa6, 0x23, 0x3e, 0x52, 0x80, 0xb5, 0x3d,
  0xfc, 0x69, 0x7a, 0xbd, 0xa8, 0xd9, 0xe9, 0x3d, 0x3a, 0xee, 0xc0, 0x3d,
  0x3c, 0x36, 0x80, 0x3d, 0x39, 0x42, 0x1d, 0x3e, 0x8a, 0xed, 0xbf, 0xbd,
  0x48, 0x3b, 0x9b, 0xbe, 0x77, 0xb2, 0x28, 0x3e, 0x38, 0xbd, 0xab, 0x3c,
  0x60, 0x88, 0x92, 0x3c, 0x43, 0x6e, 0xd0, 0xbc, 0xd1, 0x67, 0x11, 0xbc,
  0x8c, 0x5c, 0x38, 0x3e, 0x76, 0x31, 0xbc, 0x3d, 0xf9, 0x99, 0x4d, 0x3e,
  0x1c, 0x89, 0x8a, 0x3c, 0x81, 0xde, 0x38, 0x3e, 0xba, 0x32, 0x5f, 0xbd,
  0xdc, 0xe7, 0x8f, 0x3c, 0x22, 0xa2, 0x67, 0x3e, 0x37, 0xc4, 0x92, 0xbd,
  0x7b, 0x3a, 0x83, 0x3d, 0x02, 0x97, 0x59, 0xbd, 0xbf, 0x09, 0x0f, 0x3e,
  0xb1, 0x73, 0x1e, 0x3e, 0x3a, 0x98, 0xd7, 0x3d, 0xf7, 0xbc, 0x14, 0x3d,
  0x5f, 0x0d, 0x70, 0x3d, 0x57, 0xda, 0x82, 0xbd, 0x02, 0x9f, 0xba, 0x3d,
  0xfd, 0xb0, 0x0e, 0x3c, 0x3a, 0xa9, 0xc9, 0x3d, 0x99, 0x52, 0x21, 0x3e,
  0xf2, 0x47, 0x12, 0xbb, 0x13, 0xdd, 0x12, 0xbe, 0xed, 0x9f, 0x54, 0x3e,
  0x92, 0xd5, 0xd7, 0x3c, 0x5e, 0x53, 0x28, 0x3c, 0x66, 0x66, 0xa7, 0xbd,
  0xc6, 0x0a, 0xd0, 0x3d, 0x8b, 0x83, 0x93, 0xbd, 0xf1, 0xdb, 0x20, 0xbe,
  0xf8, 0xc7, 0x9b, 0xbc, 0xe2, 0xb1, 0x0a, 0x3e, 0x53, 0x10, 0x60, 0x3d,
  0xb7, 0x2a, 0x61, 0xbc, 0x21, 0x78, 0x8c, 0xbd, 0xc5, 0x1f, 0xef, 0xbd,
  0xa9, 0x79, 0xe5, 0x3d, 0xaf, 0x3a, 0x42, 0xbc, 0xe0, 0xee, 0xdf, 0xbd,
  0x2e, 0x9f, 0x15, 0xbd, 0x20, 0xc9, 0xea, 0xb7, 0xbd, 0x4d, 0x06, 0xbd,
  0x19, 0x56, 0x0a, 0xbe, 0x14, 0x9f, 0x83, 0x3d, 0xb5, 0x9c, 0x12, 0xbe,
  0x00, 0x50, 0x7f, 0xba, 0x60, 0xe4, 0x1c, 0xbe, 0x62, 0x98, 0x92, 0x3d,
  0xcc, 0xef, 0xa3, 0xbd, 0x22, 0xe2, 0x63, 0x3d, 0x56, 0x3b, 0xa8, 0xbd,
  0x21, 0x2b, 0x27, 0xbe, 0x2d, 0x4b, 0x9f, 0x3c, 0x61, 0xb2, 0x96, 0xbd,
  0xc8, 0xfc, 0x99, 0x3d, 0xf3, 0x33, 0x11, 0x3e, 0x77, 0x04, 0xa7, 0xbd,
  0x4a, 0xae, 0x37, 0xbe, 0x9f, 0x9a, 0x04, 0xbe, 0x25, 0xb9, 0x5c, 0x3e,
  0x4a, 0x25, 0x13, 0xbd, 0x2f, 0x37, 0xb8, 0xbd, 0x2d, 0x14, 0x01, 0xbb,
  0x10, 0xcf, 0x8c, 0xbd, 0x85, 0x15, 0x12, 0xbe, 0x02, 0x46, 0x8b, 0x3b,
  0x77, 0xcc, 0xd7, 0x3d, 0xf2, 0xf0, 0x6b, 0x3d, 0xf6, 0x86, 0x7c, 0x3e,
  0x7e, 0xf9, 0xe1, 0xbd, 0xb7, 0x2f, 0x89, 0xbd, 0xaa, 0xe5, 0xcc, 0x3d,
  0xc1, 0x3c, 0x02, 0xbc, 0x7f, 0xd5, 0x39, 0xbd, 0x8a, 0xec, 0x5b, 0xbe,
  0x6f, 0xa7, 0x80, 0x3d, 0x00, 0xef, 0x5f, 0x3d, 0xa8, 0xe0, 0x8a, 0xbd,
  0x76, 0x50, 0x1e, 0x3e, 0xe7, 0xc6, 0xa9, 0xbd, 0x84, 0xfa, 0xac, 0x3d,
  0x35, 0x76, 0x85, 0xbd, 0xdf, 0x72, 0x26, 0x3e, 0xad, 0x14, 0xfe, 0x3b,
  0xa0, 0x9a, 0xfe, 0x3d, 0x84, 0x06, 0x85, 0xbd, 0x05, 0x55, 0x2b, 0xba,
  0xa0, 0x82, 0xe1, 0x3b, 0x98, 0xd6, 0xf0, 0x3c, 0x29, 0x14, 0x29, 0xbd,
  0xf9, 0x60, 0x75, 0x3d, 0xe9, 0x06, 0xdc, 0xbb, 0x52, 0x73, 0xed, 0x3d,
  0x9e, 0xde, 0x13, 0xbe, 0x5c, 0x86, 0xae, 0xbd, 0xf8, 0xd1, 0x15, 0xbd,
  0x2f, 0x76, 0x45, 0xbd, 0xc0, 0x53, 0xd8, 0x3c, 0xfc, 0xda, 0x90, 0xbd,
  0x49, 0xce, 0x1a, 0x3e, 0x5e, 0x6b, 0xa0, 0x3d, 0x0b, 0x24, 0xb4, 0xba,
  0xa5, 0x2c, 0x44, 0xbe, 0x83, 0xac, 0x6f, 0x3d, 0x2a, 0xee, 0xc7, 0xbd,
  0xda, 0x29, 0xb6, 0xbb, 0x96, 0x79, 0x16, 0x3d, 0x61, 0x22, 0x69, 0x3d,
  0x30, 0xa8, 0xb3, 0xbd, 0xc4, 0x25, 0x5e, 0x3d, 0xab, 0x56, 0x10, 0x3e,
  0xf9, 0xb1, 0x80, 0x3d, 0x2a, 0xe5, 0xc0, 0xbc, 0xfc, 0x8d, 0xf4, 0x3c,
  0x7b, 0x3f, 0x87, 0x3d, 0x1d, 0x6a, 0x30, 0x3e, 0xdb, 0x46, 0xfc, 0x3d,
  0x68, 0x8b, 0x0e, 0x3d, 0x15, 0xf4, 0x17, 0xbd, 0x03, 0xd6, 0x64, 0x3e,
  0x51, 0xc6, 0xe1, 0x3d, 0x60, 0x28, 0x07, 0xbd, 0x6c, 0x95, 0x8a, 0xbd,
  0x84, 0xcd, 0xf7, 0xbb, 0x42, 0x74, 0xd6, 0x3d, 0x0a, 0xcd, 0xe6, 0x3d,
  0x4b, 0x24, 0x24, 0x3e, 0xf0, 0x14, 0x4e, 0x3e, 0x45, 0xb7, 0xfb, 0x3d,
  0xb6, 0x61, 0x2e, 0x3d, 0xa5, 0xdd, 0x5c, 0x3e, 0x1d, 0x47, 0x47, 0x3e,
  0xe4, 0xff, 0xc8, 0x3d, 0xda, 0x10, 0x75, 0x3d, 0xac, 0xf0, 0x21, 0x3c,
  0xab, 0x05, 0x20, 0x3e, 0x59, 0x63, 0x29, 0x3e, 0xf0, 0xd8, 0x5d, 0xbc,
  0xf3, 0x48, 0xc2, 0x3d, 0x13, 0xb3, 0xd9, 0x3d, 0x41, 0x5f, 0xf3, 0xbd,
  0xe8, 0x6a, 0xbe, 0xbc, 0xef, 0xe0, 0xa7, 0xbd, 0x0a, 0xc1, 0x42, 0x3e,
  0x00, 0x52, 0x18, 0x3d, 0x44, 0x90, 0xc2, 0xbd, 0x1f, 0x53, 0xca, 0x3b,
  0xa4, 0x9d, 0xd9, 0x3d, 0x73, 0xf4, 0xa6, 0x3d, 0x6a, 0x9e, 0x1e, 0xbc,
  0x00, 0x72, 0xc9, 0x3d, 0xac, 0x16, 0x25, 0xbd, 0x58, 0x3e, 0xc5, 0x3d,
  0x71, 0x13, 0x70, 0x3c, 0x89, 0xc3, 0x0f, 0x3e, 0x33, 0x87, 0xe8, 0xbd,
  0x54, 0x70, 0x49, 0x3d, 0x0d, 0x7b, 0x0e, 0x3e, 0x94, 0x41, 0xac, 0xbd,
  0x15, 0xb6, 0x10, 0x3c, 0x93, 0x9a, 0x97, 0xb9, 0x5e, 0xf6, 0x24, 0x3e,
  0x6a, 0xa9, 0xa7, 0x3d, 0xa1, 0xa7, 0x85, 0xbb, 0xcb, 0x95, 0x27, 0x3e,
  0xab, 0xed, 0xbe, 0x3d, 0xae, 0x75, 0x3f, 0xba, 0x67, 0x66, 0x16, 0x3e,
  0xc6, 0xea, 0xd1, 0xbd, 0x68, 0xcd, 0xf6, 0xbd, 0xb3, 0x36, 0x78, 0xbc,
  0x9b, 0x06, 0xdf, 0x3c, 0xcb, 0xb0, 0x11, 0x3e, 0x00, 0xa7, 0xa1, 0x3c,
  0x5c, 0xf8, 0xfd, 0x3c, 0x0f, 0xcf, 0x36, 0x3e, 0x0c, 0x60, 0x1d, 0x3c,
  0x88, 0x8c, 0xa9, 0x3d, 0xee, 0x05, 0x83, 0x3d, 0xe8, 0x6c, 0x24, 0x3e,
  0x7d, 0x12, 0x68, 0xbc, 0x9b, 0xe2, 0xee, 0xbd, 0xcb, 0x85, 0x54, 0xbb,
  0x94, 0x3e, 0xd3, 0xbd, 0x0e, 0x9b, 0xf5, 0xbd, 0x13, 0x88, 0x01, 0xbe,
  0x21, 0xdd, 0xe0, 0x3d, 0x5a, 0xfc, 0xdb, 0x3d, 0xa0, 0x7b, 0xe6, 0x3b,
  0x30, 0x98, 0xdb, 0xbd, 0x3d, 0x6f, 0x9b, 0xbd, 0x4c, 0xa8, 0x40, 0xbd,
  0x4a, 0x54, 0x25, 0xbe, 0x2c, 0xbf, 0x89, 0xbd, 0x32, 0xee, 0x3a, 0x3e,
  0x22, 0x37, 0x88, 0x3d, 0x3a, 0x78, 0x1a, 0x3e, 0x33, 0xb6, 0x9a, 0xbd,
  0x16, 0x16, 0xf5, 0x3d, 0x5d, 0x3a, 0x6e, 0x3d, 0x22, 0x77, 0x05, 0xbe,
  0xda, 0x06, 0x8c, 0xbd, 0x28, 0xda, 0x01, 0x3e, 0x32, 0xb4, 0x45, 0x3d,
  0x00, 0x1a, 0xd6, 0xba, 0xee, 0x79, 0xe3, 0x3d, 0x28, 0x68, 0xe3, 0x3d,
  0x0a, 0x73, 0x03, 0xbc, 0x4d, 0x2f, 0xc5, 0xbd, 0xaa, 0x4c, 0xfc, 0xbd,
  0x9e, 0x8b, 0x1d, 0x3d, 0x66, 0x88, 0x91, 0x3d, 0x47, 0x9b, 0xcd, 0x3d,
  0x33, 0x9e, 0xad, 0x3d, 0xb5, 0x3e, 0x41, 0xbd, 0x82, 0xce, 0xd6, 0x3c,
  0xd0, 0x6b, 0x85, 0x3d, 0x0e, 0x78, 0x5a, 0xbc, 0xb7, 0xd2, 0x11, 0x3e,
  0x69, 0xaa, 0xcf, 0xbd, 0x80, 0x99, 0x74, 0xbb, 0xc0, 0x8c, 0xca, 0x3c,
  0xbf, 0x14, 0x1b, 0xbe, 0x15, 0x29, 0xed, 0xbd, 0x26, 0x05, 0x91, 0xbd,
  0x66, 0xc4, 0x00, 0xbe, 0x15, 0x6c, 0x5d, 0x3c, 0xdc, 0xbc, 0x36, 0xbe,
  0x33, 0xa9, 0x97, 0x3d, 0x83, 0x39, 0x6f, 0xbd, 0x72, 0xba, 0xdd, 0xbd,
  0x98, 0xfa, 0xce, 0xbd, 0xd5, 0x6d, 0x8e, 0x3c, 0x9a, 0x65, 0x48, 0xbd,
  0x57, 0xf6, 0x20, 0x3e, 0x23, 0x9c, 0x46, 0x3d, 0xe2, 0x19, 0xea, 0xbd,
  0x5f, 0xb4, 0x01, 0x3e, 0xd9, 0x7e, 0x29, 0xbe, 0xcc, 0xfd, 0xdc, 0x3c,
  0xf9, 0xfd, 0x5c, 0xbc, 0xb2, 0xe5, 0x49, 0x3d, 0x09, 0x19, 0x13, 0xbe,
  0x68, 0x28, 0x8e, 0xbd, 0xfe, 0xc0, 0x54, 0xbe, 0x46, 0x23, 0x35, 0x3e,
  0x2d, 0xcb, 0x87, 0xbd, 0xbd, 0x2b, 0x31, 0xbe, 0x8a, 0xa6, 0xda, 0xbd,
  0x19, 0x81, 0x84, 0xbd, 0x23, 0xf3, 0xad, 0xbd, 0x2c, 0xf0, 0xa2, 0x3d,
  0x0e, 0x40, 0x2a, 0xbd, 0x00, 0x54, 0x18, 0x3b, 0xf0, 0x8b, 0x62, 0x3d,
  0xf1, 0xb7, 0x7f, 0xbd, 0x6e, 0xad, 0x28, 0x3e, 0xbd, 0xae, 0x99, 0x3c,
  0x91, 0x3d, 0x66, 0x3c, 0x52, 0xc9, 0xa0, 0xbd, 0xdd, 0xd4, 0x06, 0xbe,
  0xba, 0xe4, 0xaf, 0x3d, 0xc8, 0xf4, 0x2c, 0x3e, 0xb3, 0x2b, 0xf5, 0xbc,
  0x6c, 0x3c, 0x29, 0x3e, 0x61, 0x3f, 0x4f, 0xbd, 0xea, 0x01, 0x1b, 0x3e,
  0xa9, 0x51, 0x6e, 0xbe, 0xd2, 0x81, 0xec, 0xbd, 0xd4, 0x86, 0x11, 0x3d,
  0x57, 0xb1, 0xb6, 0x3d, 0x48, 0xc6, 0xff, 0xbc, 0xd2, 0xce, 0x40, 0xbd,
  0x80, 0x42, 0x28, 0x3e, 0xcd, 0x3e, 0xf7, 0x3c, 0x3a, 0x08, 0x63, 0xbc,
  0xa0, 0x0b, 0xf4, 0xbc, 0xe7, 0x1e, 0x5b, 0x3e, 0x31, 0x6c, 0x8c, 0x3d,
  0x4c, 0x84, 0x82, 0xbe, 0xf4, 0xcc, 0x30, 0x3e, 0x9a, 0xdc, 0x46, 0x3e,
  0x02, 0xc7, 0xec, 0x3d, 0x78, 0x58, 0x25, 0xbc, 0x8e, 0x9f, 0xb7, 0xbd,
  0x80, 0x2f, 0x82, 0xbb, 0x7c, 0x86, 0x38, 0x3e, 0xbf, 0x5a, 0xbc, 0x3d,
  0xa8, 0x40, 0x43, 0x3d, 0x36, 0x3c, 0x2a, 0x3e, 0x1a, 0xab, 0x9b, 0xbc,
  0x11, 0x64, 0xef, 0x3d, 0x2e, 0xe3, 0x2f, 0xbe, 0x48, 0x77, 0xcf, 0x3d,
  0x88, 0x77, 0xac, 0x3d, 0x72, 0x53, 0x52, 0xbd, 0xb8, 0xa7, 0x46, 0xbd,
  0xa6, 0x0e, 0x4c, 0x3e, 0x47, 0xef, 0xee, 0x3c, 0xbb, 0x4a, 0x24, 0xbd,
  0xb7, 0x86, 0x17, 0x3e, 0x08, 0xcd, 0xd4, 0x3c, 0x06, 0xc2, 0x32, 0xbd,
  0x25, 0x51, 0xcf, 0x3d, 0x37, 0x1f, 0xd7, 0x3d, 0x2c, 0x35, 0xd3, 0x3d,
  0x50, 0x2f, 0x2d, 0xbe, 0x15, 0xbe, 0x17, 0x3e, 0xca, 0x87, 0xb9, 0xba,
  0xc2, 0xd8, 0x9a, 0x3d, 0xfe, 0x3b, 0xa9, 0xbd, 0x52, 0x0f, 0xe0, 0xbd,
  0xcd, 0xf7, 0x98, 0x3c, 0x16, 0x1c, 0xdb, 0xbd, 0x4a, 0xef, 0x12, 0xbe,
  0x45, 0x38, 0x16, 0x3c, 0x87, 0x80, 0x1e, 0x3e, 0x05, 0x87, 0xf0, 0xbd,
  0x62, 0xdb, 0xa0, 0x3d, 0xbb, 0x69, 0xd5, 0xbd, 0x35, 0x82, 0xe8, 0x3d,
  0xa3, 0x81, 0x5c, 0xbc, 0x21, 0xc5, 0x05, 0xbd, 0x7a, 0xb2, 0xe0, 0x3d,
  0xe6, 0xdc, 0xec, 0xbd, 0xf9, 0x50, 0x2d, 0xbd, 0x56, 0x50, 0x02, 0x3e,
  0x96, 0xfb, 0xfe, 0xbd, 0x53, 0xe8, 0x0b, 0x3e, 0xa9, 0x7e, 0x80, 0xbd,
  0xea, 0x64, 0x4a, 0xbe, 0x00, 0xd4, 0x2e, 0x3d, 0x70, 0xb8, 0xf9, 0xbc,
  0x9e, 0xca, 0x54, 0xbd, 0x98, 0x82, 0xb7, 0x3d, 0xf1, 0xf5, 0x97, 0xbd,
  0x10, 0x01, 0x49, 0xbe, 0xf7, 0xf4, 0xc7, 0x3d, 0x12, 0x21, 0xdc, 0x3c,
  0xd8, 0x11, 0xee, 0xbd, 0x8f, 0x73, 0x3e, 0x3d, 0x13, 0xae, 0x8f, 0xbc,
  0x4a, 0x94, 0xf5, 0x3c, 0xad, 0x61, 0x42, 0xbe, 0x3b, 0x6a, 0x92, 0x3d,
  0xa0, 0x72, 0x88, 0x3d, 0xc0, 0x50, 0x15, 0x3c, 0x1c, 0x4d, 0x16, 0xbe,
  0x40, 0x4d, 0x59, 0x3d, 0x81, 0x12, 0x0d, 0x3e, 0x46, 0xc1, 0x0c, 0xbd,
  0xe0, 0x55, 0x21, 0x3d, 0xa2, 0x1e, 0x14, 0x3c, 0x41, 0x17, 0x4a, 0xbe,
  0x16, 0x1f, 0xa0, 0xbd, 0xce, 0xd7, 0x7d, 0xbc, 0xea, 0x0e, 0x19, 0xbe,
  0x64, 0x14, 0xc5, 0xbb, 0x0e, 0x4d, 0x85, 0x3c, 0xa3, 0x83, 0xb2, 0x3d,
  0xad, 0xad, 0x43, 0xbd, 0x43, 0xe7, 0x39, 0xbe, 0x33, 0x7d, 0xc1, 0x3c,
  0x96, 0xf1, 0x04, 0x3d, 0x34, 0xfd, 0xb8, 0xbd, 0xbf, 0x07, 0x12, 0xbe,
  0xfc, 0xff, 0x5f, 0x3c, 0xc6, 0x2b, 0x87, 0x3d, 0x80, 0xa4, 0x8f, 0x3d,
  0xa6, 0x9d, 0xd5, 0x3d, 0x7c, 0x4c, 0x94, 0x3d, 0x4e, 0xee, 0x06, 0xbe,
  0xe6, 0x65, 0xae, 0xbd, 0x25, 0x31, 0xbf, 0xbb, 0x9e, 0xfb, 0xbc, 0xbd,
  0x43, 0x52, 0xa0, 0x3d, 0x8b, 0x94, 0x8c, 0xbd, 0x81, 0x29, 0xdf, 0x3d,
  0x3e, 0xb5, 0x50, 0xbd, 0x9b, 0x7f, 0xef, 0xbd, 0x70, 0xf8, 0x09, 0xbe,
  0xba, 0x2d, 0x09, 0xbd, 0x84, 0x3a, 0xeb, 0x3c, 0x35, 0x9c, 0x75, 0x3d,
  0x04, 0x23, 0x9a, 0xbc, 0x8f, 0x99, 0x1b, 0x3e, 0x9f, 0xe3, 0x04, 0xbd,
  0xf3, 0x44, 0x3f, 0x3c, 0xd6, 0x53, 0x27, 0xbe, 0xca, 0x2b, 0xb9, 0x3d,
  0xb5, 0xa4, 0x2b, 0x3e, 0xba, 0x12, 0xa5, 0xbc, 0x42, 0xff, 0x0c, 0xbe,
  0xee, 0xf0, 0x18, 0xbe, 0xf8, 0xe9, 0x95, 0x3d, 0xbc, 0xbf, 0x82, 0xbc,
  0x94, 0x3c, 0x72, 0x3d, 0x58, 0xad, 0xa4, 0xbc, 0x87, 0xdb, 0x7c, 0x3d,
  0x4d, 0x53, 0x8c, 0xbd, 0x65, 0xa1, 0x68, 0x3b, 0x05, 0x00, 0xc9, 0xbd,
  0x64, 0x38, 0x1d, 0xbe, 0x95, 0xf2, 0xe9, 0x3d, 0xc0, 0xf5, 0xac, 0x3d,
  0xb4, 0x4f, 0xe6, 0xbd, 0x6f, 0x2d, 0x17, 0x3e, 0xc9, 0x24, 0x2c, 0xbe,
  0x50, 0xd4, 0x11, 0x3e, 0x52, 0x46, 0xd9, 0x3d, 0x5f, 0xd6, 0x06, 0xbe,
  0xfe, 0x7e, 0x28, 0x3d, 0x7d, 0xa6, 0x86, 0xbd, 0x36, 0x6e, 0x18, 0xbe,
  0x72, 0x5c, 0x8c, 0x3d, 0x05, 0x01, 0x8c, 0x3d, 0x16, 0xcb, 0xa5, 0xbd,
  0xe9, 0x5c, 0x57, 0x3d, 0xbb, 0xaa, 0x43, 0x3c, 0x46, 0xeb, 0x12, 0xbe,
  0xe4, 0x23, 0xa6, 0xbd, 0x43, 0x15, 0xa0, 0xbd, 0x56, 0x4e, 0xab, 0x3d,
  0xcd, 0x10, 0x6b, 0xbd, 0x78, 0xe3, 0x42, 0xbb, 0xb8, 0x1f, 0xd0, 0xbd,
  0x5e, 0x75, 0xdb, 0xbd, 0xd1, 0x7b, 0xa5, 0x3d, 0x3c, 0xb5, 0x7f, 0x3d,
  0x8b, 0x31, 0xb0, 0xbd, 0xae, 0x14, 0x45, 0x3e, 0x88, 0x76, 0xb0, 0xbc,
  0xbd, 0xa1, 0x0a, 0x3e, 0xd6, 0x96, 0x8b, 0x3d, 0x1c, 0xde, 0x0d, 0x3e,
  0x51, 0x80, 0x33, 0x3e, 0xba, 0x22, 0xc0, 0x3d, 0xe2, 0x42, 0xc0, 0xbd,
  0x23, 0x2d, 0x5c, 0x3d, 0x42, 0x49, 0x6a, 0x3d, 0xb3, 0xe6, 0x0e, 0xbd,
  0xae, 0x7f, 0x69, 0x3d, 0x8c, 0x19, 0xc9, 0xbb, 0x8e, 0x83, 0xaf, 0x3c,
  0xf9, 0x97, 0x1b, 0x3e, 0x22, 0x4b, 0x21, 0xbe, 0x8d, 0x42, 0x3b, 0x3c,
  0x03, 0xd8, 0x24, 0x3d, 0xd3, 0x02, 0x84, 0xb8, 0x67, 0xb2, 0xaa, 0xbc,
  0xd0, 0x45, 0x22, 0x3d, 0xbb, 0xc7, 0xe6, 0x3d, 0x70, 0x28, 0x9c, 0xbd,
  0x20, 0x55, 0xca, 0xbd, 0xe8, 0xa4, 0x0d, 0x3d, 0xba, 0xa9, 0x5d, 0x3e,
  0x84, 0x26, 0x16, 0x3e, 0x63, 0x7c, 0xe4, 0x3d, 0x76, 0xc7, 0x47, 0xbd,
  0x76, 0xb3, 0x45, 0xbd, 0x22, 0x77, 0x46, 0xbd, 0x10, 0x0f, 0x71, 0x3d,
  0x1f, 0x3d, 0xed, 0x3d, 0x3d, 0x65, 0x0e, 0x3e, 0x07, 0x08, 0x73, 0xbd,
  0x9e, 0x65, 0xa0, 0x3d, 0x67, 0x2e, 0x92, 0x3d, 0x73, 0xe1, 0x1a, 0x3e,
  0xc1, 0xe5, 0x1f, 0x3c, 0x5d, 0x39, 0xa3, 0xbd, 0xfe, 0x5c, 0x0b, 0xbe,
  0x68, 0xb0, 0xb4, 0x3d, 0xc6, 0x7e, 0x82, 0x3d, 0x2d, 0x42, 0xd6, 0xbd,
  0x58, 0xc5, 0x26, 0xbd, 0x94, 0xbf, 0xbe, 0xbc, 0xe0, 0xb8, 0x4f, 0x3c,
  0x18, 0x96, 0xab, 0x3c, 0xfd, 0xcb, 0x1d, 0xbe, 0xf3, 0xd4, 0x35, 0xbd,
  0xde, 0x28, 0x0b, 0xbe, 0x96, 0x1f, 0x94, 0xbd, 0x3c, 0x76, 0x76, 0x3d,
  0x57, 0xe6, 0x92, 0xbc, 0xde, 0x67, 0x90, 0x3d, 0x5f, 0x92, 0x39, 0xbe,
  0xb8, 0x2f, 0xba, 0xbd, 0xbb, 0x4e, 0x8f, 0xbd, 0xbd, 0xd6, 0x7e, 0xbd,
  0xb6, 0x17, 0x1e, 0xbe, 0x04, 0x36, 0x31, 0xbd, 0x37, 0x83, 0x0a, 0xbd,
  0x20, 0x94, 0xd1, 0xbb, 0xa0, 0x71, 0x55, 0x3c, 0x04, 0xb7, 0xb3, 0xbd,
  0x4c, 0xca, 0x24, 0x3e, 0x35, 0x8e, 0x35, 0xbd, 0x84, 0xba, 0x75, 0x3d,
  0x34, 0x00, 0xe2, 0xbd, 0x04, 0x20, 0xa4, 0xbd, 0x25, 0xd1, 0xa3, 0xbb,
  0xc9, 0x83, 0x43, 0x3c, 0x9c, 0x35, 0x4f, 0x3d, 0x90, 0x53, 0x62, 0x3d,
  0xe5, 0x2c, 0x8d, 0x3d, 0x62, 0x99, 0x0b, 0xbd, 0x94, 0x6d, 0x6b, 0xbd,
  0x75, 0xc6, 0x5b, 0x3e, 0x02, 0xe1, 0xd6, 0xbd, 0x60, 0x8c, 0x0c, 0xbc,
  0x9c, 0x3e, 0x54, 0x3d, 0xf9, 0xb2, 0x9d, 0xbc, 0x95, 0x77, 0x57, 0xbe,
  0x00, 0xce, 0x3d, 0xbe, 0x4c, 0x21, 0x32, 0x3e, 0xf8, 0x7e, 0xa7, 0xbc,
  0x3c, 0x22, 0x6b, 0xbd, 0x69, 0x8d, 0xaa, 0x3c, 0x6e, 0x1c, 0xca, 0xbd,
  0x2e, 0xaa, 0xef, 0x3d, 0xfa, 0x7c, 0x61, 0xbd, 0x98, 0x90, 0xc4, 0x3d,
  0x2f, 0x7a, 0xc3, 0xbc, 0x62, 0x71, 0x75, 0x3e, 0x70, 0x89, 0x1a, 0xbe,
  0x75, 0xfe, 0x83, 0xbd, 0xe3, 0x44, 0xe8, 0x3c, 0xd9, 0xef, 0x87, 0x3d,
  0x60, 0xe4, 0x5e, 0xbd, 0x99, 0xc3, 0xca, 0xbc, 0x88, 0x5e, 0x2d, 0x3d,
  0xa1, 0x69, 0x17, 0xbe, 0xd5, 0x68, 0x08, 0x3e, 0x93, 0xec, 0x10, 0xbc,
  0x54, 0x6c, 0xbe, 0xbc, 0x09, 0x07, 0xe1, 0x3d, 0x84, 0x04, 0x9c, 0x3a,
  0x9c, 0xc6, 0xe7, 0x3d, 0xeb, 0x0e, 0x35, 0x3e, 0x6c, 0x12, 0x5b, 0x3c,
  0xa0, 0xa3, 0x0e, 0xbc, 0x40, 0x5a, 0xe0, 0xbb, 0x22, 0x20, 0x80, 0xbb,
  0x42, 0x1e, 0xcf, 0x3c, 0xa7, 0x19, 0x7e, 0x3d, 0xba, 0x75, 0x30, 0xbd,
  0xd0, 0x57, 0x12, 0x3e, 0x63, 0x04, 0x36, 0x3a, 0x73, 0x7c, 0x56, 0x3e,
  0xd9, 0x87, 0x16, 0x3e, 0xa8, 0x91, 0x17, 0xbe, 0xfa, 0xea, 0x62, 0x3d,
  0xd9, 0xa6, 0x93, 0xbd, 0xe4, 0xa5, 0x33, 0x3e, 0x92, 0x96, 0x71, 0xbb,
  0x28, 0x8f, 0x08, 0x3e, 0x6e, 0x43, 0xbf, 0x3d, 0x21, 0x1a, 0xae, 0xbd,
  0xef, 0x03, 0x89, 0x3d, 0x81, 0x5d, 0xf0, 0x3c, 0x02, 0x0d, 0x92, 0x3d,
  0x74, 0xc4, 0x46, 0x3e, 0x67, 0xe2, 0x6b, 0x3e, 0x13, 0x70, 0x0d, 0x3e,
  0x71, 0x08, 0x71, 0xbd, 0xcf, 0x72, 0x50, 0xbd, 0x6d, 0x4d, 0x8f, 0xbd,
  0xbb, 0x3c, 0x41, 0x3e, 0x62, 0xba, 0xe7, 0x3d, 0x12, 0x30, 0x1b, 0x3e,
  0x30, 0x4e, 0x30, 0x3d, 0x55, 0x30, 0xc9, 0x3b, 0x03, 0xa9, 0x9f, 0xbd,
  0xa9, 0xa2, 0x11, 0xbe, 0x7a, 0x3a, 0x0a, 0x3c, 0x73, 0x17, 0x4f, 0x3e,
  0x64, 0x37, 0x5e, 0x3e, 0x69, 0x2b, 0x90, 0x3d, 0x63, 0x79, 0x5e, 0x3e,
  0x6b, 0xf8, 0x17, 0x3e, 0x25, 0xf1, 0x48, 0x3e, 0xe1, 0x3b, 0xa1, 0x3c,
  0x58, 0xee, 0x08, 0x3d, 0x3a, 0x78, 0x42, 0x3e, 0x61, 0xe1, 0xd1, 0xbd,
  0xe3, 0xa2, 0xce, 0xbd, 0xcf, 0x94, 0x81, 0xbd, 0xa7, 0x1b, 0xa3, 0xbd,
  0x50, 0x6b, 0x40, 0x3d, 0xa1, 0x71, 0x9b, 0xbd, 0xeb, 0xa3, 0x0b, 0x3d,
  0x31, 0x86, 0x44, 0x3e, 0xc1, 0x79, 0xe9, 0x3d, 0x20, 0x2b, 0x21, 0x3e,
  0xd3, 0xde, 0x27, 0x3e, 0xf6, 0x49, 0x94, 0x3d, 0x30, 0x8d, 0xe3, 0x3d,
  0xe3, 0xcc, 0xed, 0x3c, 0x96, 0x6d, 0xfa, 0xbc, 0x48, 0x18, 0x1e, 0x3e,
  0x17, 0xc0, 0x28, 0x3e, 0x33, 0x6c, 0xee, 0xbd, 0x74, 0x54, 0xdf, 0x3d,
  0xe3, 0x85, 0xbd, 0x3c, 0xe4, 0x62, 0xa9, 0x3d, 0xf8, 0x9f, 0xeb, 0xbd,
  0xb4, 0xf3, 0x09, 0xbd, 0x3e, 0xc4, 0xdc, 0xbd, 0xc6, 0x00, 0x61, 0xbd,
  0xf9, 0xea, 0xf2, 0xbd, 0xfd, 0x41, 0xb0, 0xbd, 0xd0, 0xbd, 0xdf, 0xbd,
  0x83, 0x0d, 0x18, 0x3c, 0x93, 0x6a, 0x26, 0x3e, 0xca, 0x22, 0x22, 0xbe,
  0x6a, 0x06, 0x17, 0x3e, 0x0a, 0x8d, 0xae, 0xbd, 0xff, 0xa2, 0x3d, 0x3c,
  0xf9, 0xed, 0x00, 0x3e, 0x3c, 0xfd, 0xa6, 0x3d, 0x30, 0xcd, 0x31, 0x3d,
  0x8d, 0x0c, 0xbb, 0xbd, 0x28, 0xf8, 0x28, 0x3e, 0x75, 0x59, 0xbc, 0x3d,
  0xcb, 0x58, 0xae, 0xbd, 0x44, 0xe7, 0x20, 0xbd, 0x9c, 0xc0, 0xcd, 0x3c,
  0x33, 0x3a, 0xcf, 0xbd, 0xd9, 0x9e, 0x21, 0x3e, 0x0c, 0x74, 0x30, 0x3d,
  0x30, 0x79, 0x46, 0xbd, 0x06, 0x2e, 0x99, 0xbd, 0x9e, 0x56, 0x8a, 0xbd,
  0x83, 0x85, 0x1c, 0xbe, 0x8b, 0xa0, 0x2f, 0x3d, 0x01, 0xce, 0x25, 0x3e,
  0xfb, 0x5f, 0x0e, 0x3e, 0xf1, 0xea, 0x98, 0xbd, 0xe3, 0x20, 0xbf, 0x3d,
  0x9a, 0x62, 0xec, 0x3c, 0x07, 0x9f, 0xf5, 0x3b, 0xe7, 0xfd, 0xb0, 0x3d,
  0x7f, 0xe0, 0xf8, 0xbd, 0xfc, 0x22, 0xcf, 0xbd, 0x31, 0x33, 0x0c, 0x3e,
  0xeb, 0xd3, 0x7b, 0x3d, 0x15, 0x41, 0x78, 0xbd, 0x0f, 0xde, 0x37, 0xbd,
  0x26, 0x62, 0x0e, 0x3d, 0x8e, 0xc6, 0xf5, 0xbd, 0x28, 0x56, 0xdb, 0x3d,
  0x76, 0x63, 0xd8, 0xbd, 0x96, 0x82, 0x92, 0x3d, 0x40, 0xa5, 0xad, 0xbc,
  0x69, 0x8e, 0xa7, 0x3d, 0x5c, 0xba, 0x60, 0xbd, 0x4d, 0x2f, 0x09, 0xbe,
  0x7d, 0xc5, 0xe0, 0xbd, 0xa4, 0x50, 0x25, 0xbe, 0x19, 0xf7, 0xe3, 0x3c,
  0xca, 0xe2, 0xd4, 0xbd, 0x2d, 0x4b, 0xf7, 0x3c, 0x3d, 0x10, 0x46, 0xbd,
  0x54, 0x1f, 0x80, 0x3d, 0x86, 0xad, 0xf6, 0x3d, 0xea, 0xce, 0x05, 0x3e,
  0xdb, 0x56, 0xb0, 0x3e, 0x6c, 0xee, 0x0c, 0xbe, 0x62, 0xf9, 0xd5, 0x3d,
  0xa7, 0xc6, 0x81, 0xbd, 0x6a, 0x2f, 0xb6, 0xbc, 0x57, 0x66, 0xbd, 0x3d,
  0xf5, 0xd8, 0xb0, 0x3a, 0x8c, 0x14, 0xba, 0xbd, 0xc5, 0x25, 0x69, 0xbd,
  0xa4, 0xc0, 0xc5, 0x3c, 0x2c, 0xde, 0x1b, 0xbe, 0x50, 0x19, 0x20, 0x3e,
  0xe6, 0x1a, 0x53, 0x3c, 0x08, 0x72, 0x54, 0xbe, 0xb3, 0x72, 0xec, 0x3c,
  0x6c, 0xac, 0xe5, 0xbd, 0x29, 0xb1, 0x99, 0x3d, 0xc9, 0x4a, 0x29, 0xbe,
  0xe6, 0x7a, 0xfb, 0x3d, 0x28, 0xc9, 0xd9, 0x3c, 0xbd, 0x36, 0xc7, 0xbd,
  0x65, 0x89, 0xca, 0x3d, 0xbc, 0xee, 0x7b, 0xbd, 0xbe, 0xc3, 0xcf, 0xba,
  0xf5, 0xce, 0x8e, 0x3c, 0x55, 0x3e, 0x4e, 0xbe, 0x3d, 0x0e, 0x00, 0xbe,
  0x67, 0x97, 0x2b, 0x3e, 0x4a, 0x18, 0x18, 0xbe, 0x81, 0x21, 0x2f, 0xbe,
  0xfd, 0xdd, 0x8b, 0x3d, 0x95, 0x96, 0x1f, 0x3e, 0xdc, 0xd6, 0xbb, 0x3c,
  0xe9, 0xbb, 0xdc, 0xbd, 0xc0, 0x65, 0x18, 0xbb, 0xd2, 0xe4, 0xec, 0x3d,
  0xe5, 0xbc, 0x4b, 0x3e, 0xa1, 0xac, 0xe9, 0x3c, 0x2c, 0x46, 0x42, 0x3d,
  0x2b, 0x00, 0x31, 0x3e, 0x83, 0xfb, 0xce, 0x3c, 0xc8, 0x3d, 0xbb, 0x3d,
  0x03, 0xc9, 0x90, 0x3d, 0xe4, 0xb6, 0x3a, 0x3e, 0x45, 0xa5, 0xa3, 0x3d,
  0xc9, 0xe2, 0x29, 0xbc, 0x1e, 0x59, 0xbf, 0xbd, 0x9f, 0x24, 0x1e, 0xbd,
  0x55, 0x30, 0x18, 0xbd, 0x31, 0x75, 0x06, 0x3d, 0x68, 0x94, 0xc4, 0x3c,
  0x18, 0x33, 0xab, 0x3d, 0xdc, 0x62, 0x42, 0x3e, 0xd6, 0x1a, 0xfd, 0x3c,
  0xad, 0xb0, 0x27, 0xbc, 0x98, 0x37, 0xfe, 0xbc, 0x2d, 0xcb, 0x2d, 0x3e,
  0x7a, 0xd5, 0x29, 0x3e, 0x85, 0x9a, 0x0f, 0x3d, 0xff, 0x12, 0x4f, 0xbc,
  0x89, 0xa6, 0x45, 0x3d, 0xb8, 0x07, 0x2c, 0xbe, 0xe2, 0xdc, 0xc0, 0xbc,
  0xfd, 0x9b, 0x91, 0xbc, 0x85, 0xeb, 0x4e, 0xbd, 0xf4, 0xb7, 0x4b, 0x3d,
  0x66, 0x9f, 0x61, 0xbd, 0x80, 0x39, 0xf0, 0x3a, 0xd9, 0x43, 0x0f, 0x3d,
  0xbf, 0x1d, 0x2f, 0x3e, 0x8d, 0x84, 0xb0, 0xbc, 0x8c, 0x0d, 0xd1, 0x3d,
  0xba, 0xfb, 0x09, 0xbe, 0x6b, 0xe4, 0x0c, 0x3e, 0x5f, 0x99, 0x88, 0x3c,
  0x40, 0x87, 0xb2, 0xba, 0x78, 0x65, 0x18, 0x3d, 0x62, 0x59, 0x33, 0xbe,
  0x7b, 0x49, 0xcb, 0x3c, 0xf4, 0x00, 0xf6, 0x3c, 0x3c, 0xd4, 0xe3, 0x3d,
  0xe0, 0x72, 0xd2, 0xbb, 0x06, 0x62, 0xc4, 0x3d, 0x7f, 0xae, 0x05, 0x3e,
  0x48, 0x4d, 0xd1, 0xbd, 0xbc, 0x00, 0xcb, 0x3d, 0x9c, 0x23, 0x35, 0xbd,
  0x46, 0x63, 0x0a, 0x3e, 0x57, 0xc6, 0x0f, 0x3e, 0x11, 0xfb, 0xfc, 0x3d,
  0xf5, 0x0b, 0x6c, 0xbe, 0x02, 0xc4, 0x14, 0x3d, 0xe2, 0x9a, 0x9c, 0x3c,
  0xb7, 0xd1, 0xe1, 0xbd, 0x14, 0xaf, 0x80, 0x3d, 0x44, 0xc6, 0x9b, 0xbd,
  0xfd, 0x74, 0x14, 0x3c, 0xc5, 0x5f, 0x7d, 0xbe, 0xf8, 0x10, 0x98, 0xbc,
  0x74, 0xa8, 0x19, 0xbe, 0x8f, 0x11, 0xb5, 0x3d, 0x68, 0x81, 0xe6, 0x3c,
  0xc2, 0xfe, 0xea, 0x3d, 0x48, 0x90, 0xb7, 0xbd, 0x23, 0x2d, 0xb2, 0x3c,
  0x10, 0x64, 0x25, 0x3e, 0x2d, 0x54, 0xe3, 0xbc, 0x43, 0x09, 0xa6, 0x3d,
  0xc9, 0xf6, 0x37, 0xbb, 0xf0, 0x09, 0x56, 0x3b, 0x4e, 0xaa, 0x51, 0xbd,
  0x2c, 0x5e, 0x68, 0x3d, 0xe5, 0x59, 0xdb, 0xbc, 0x57, 0x89, 0x62, 0xbe,
  0x60, 0x5c, 0x9b, 0x3c, 0xe0, 0xbb, 0xfe, 0xbb, 0x95, 0x1b, 0xea, 0x3d,
  0x66, 0xae, 0x22, 0x3e, 0xc4, 0x54, 0xcf, 0xbd, 0x00, 0x44, 0x8e, 0xbd,
  0xfd, 0x81, 0xa0, 0x3d, 0x92, 0x71, 0x04, 0x3e, 0x20, 0xb1, 0x60, 0xbc,
  0x5a, 0x85, 0xa6, 0x3d, 0xdf, 0x91, 0x39, 0x3e, 0xf6, 0x82, 0xfe, 0xbc,
  0xb8, 0x6c, 0xa7, 0x3d, 0xb1, 0xba, 0xd1, 0xbc, 0x5d, 0x37, 0xc7, 0xbd,
  0x2c, 0xa0, 0x6a, 0x3d, 0x8c, 0x94, 0x11, 0xbe, 0x40, 0xd7, 0x1f, 0xbe,
  0xdc, 0xdb, 0x88, 0xbd, 0xb2, 0x2e, 0x15, 0x3e, 0x81, 0xa9, 0xa0, 0x3d,
  0x02, 0x06, 0x22, 0x3e, 0x45, 0xe1, 0xdb, 0xbd, 0x52, 0x99, 0x6e, 0x3d,
  0x74, 0x6e, 0xf0, 0xbc, 0x4e, 0x9a, 0x04, 0x3d, 0xb5, 0x44, 0x68, 0x3c,
  0x7b, 0x03, 0x87, 0xbd, 0xa4, 0xc1, 0x79, 0x3b, 0x68, 0xa5, 0x22, 0x3e,
  0xef, 0x42, 0xb2, 0xbd, 0x50, 0xbc, 0xea, 0xbd, 0xaa, 0x7a, 0xa5, 0x3d,
  0x82, 0xb0, 0xc7, 0xbd, 0x07, 0x01, 0x9b, 0xbc, 0x47, 0x09, 0x9d, 0x3d,
  0x2d, 0x46, 0x06, 0xbe, 0xc8, 0x32, 0x12, 0x3c, 0x18, 0x9a, 0xbd, 0x3a,
  0x15, 0xfe, 0x65, 0x3d, 0x12, 0x41, 0xd4, 0xbd, 0x71, 0x18, 0xac, 0xba,
  0x5b, 0x90, 0x2d, 0x3e, 0xef, 0xf5, 0xd3, 0xbd, 0x00, 0xa0, 0xee, 0x3d,
  0xdf, 0xe3, 0x16, 0x3e, 0xb2, 0x40, 0x9f, 0xbd, 0x90, 0xcb, 0x35, 0xbe,
  0x68, 0xba, 0xb4, 0x3c, 0x50, 0x6c, 0x7f, 0x3c, 0x18, 0x1c, 0x02, 0xbc,
  0x8c, 0x94, 0x6e, 0x3d, 0xd7, 0xe4, 0xaf, 0x3d, 0xea, 0x6a, 0xc7, 0x3b,
  0xc1, 0x67, 0xff, 0xbd, 0xc7, 0xfe, 0x40, 0x3d, 0xbf, 0x33, 0x79, 0xbc,
  0xa5, 0x1b, 0x65, 0x3d, 0x45, 0xc9, 0x12, 0x3c, 0xc7, 0x33, 0xe6, 0x3b,
  0xfc, 0xc9, 0x10, 0x3e, 0xe9, 0x2e, 0x81, 0xbd, 0xa2, 0xcb, 0x8f, 0x3d,
  0xf1, 0xc2, 0xab, 0x3d, 0x24, 0x11, 0x07, 0xbd, 0x08, 0xf1, 0x38, 0x3d,
  0xd8, 0x43, 0xc6, 0x3d, 0xa9, 0xbb, 0x82, 0xbd, 0xf4, 0x36, 0xca, 0x3d,
  0x04, 0x3c, 0xf1, 0x3d, 0x87, 0x21, 0xc6, 0x3d, 0xfa, 0x87, 0x35, 0x3e,
  0xd4, 0x32, 0x31, 0xbe, 0x4a, 0xc0, 0xec, 0x3d, 0x32, 0x54, 0xbb, 0xba,
  0x38, 0x76, 0xaf, 0x3d, 0x94, 0x95, 0xef, 0x3d, 0x12, 0x73, 0x7c, 0x3d,
  0x2e, 0x9e, 0x29, 0xbd, 0x14, 0xa8, 0x0c, 0x3e, 0x75, 0xe6, 0xb5, 0xbd,
  0x30, 0x2c, 0x63, 0xbc, 0xe0, 0xf2, 0xca, 0xbd, 0x58, 0xd3, 0x1a, 0x3d,
  0x7b, 0x12, 0x26, 0xbd, 0xff, 0x68, 0x93, 0x3d, 0x3d, 0xd9, 0xe3, 0xbc,
  0xcd, 0xa8, 0xc6, 0x3d, 0x8a, 0xde, 0xbe, 0xbd, 0x94, 0xfd, 0x42, 0x3e,
  0xd3, 0xea, 0x4c, 0x3e, 0x85, 0x35, 0x87, 0xbd, 0x89, 0x99, 0x72, 0x3c,
  0x67, 0x2a, 0x01, 0xbe, 0xb6, 0x85, 0xd1, 0xbd, 0xdf, 0xf5, 0xb4, 0xbc,
  0x75, 0x69, 0x20, 0x3e, 0x5a, 0x53, 0x08, 0xbe, 0x32, 0xcc, 0x22, 0x3e,
  0x89, 0x21, 0x98, 0xbd, 0x1a, 0x4b, 0x87, 0xbd, 0x84, 0x5f, 0x6e, 0x3d,
  0xb4, 0xfe, 0x10, 0xbd, 0xbc, 0x90, 0xf5, 0x3d, 0x15, 0x3f, 0x18, 0x3e,
  0xc0, 0x2c, 0x01, 0x3e, 0xe5, 0x4c, 0xec, 0xbd, 0xb2, 0xe3, 0xa2, 0xbd,
  0xc2, 0x8c, 0x19, 0x3e, 0x17, 0xc7, 0xab, 0xbb, 0xfc, 0x9a, 0x81, 0x3d,
  0xb7, 0x1c, 0xc1, 0x3d, 0xb5, 0x17, 0x89, 0xbd, 0x60, 0xee, 0xff, 0xbc,
  0x30, 0x95, 0xc1, 0x3b, 0x78, 0x91, 0x85, 0x3a, 0x8c, 0xb1, 0x22, 0x3e,
  0xe5, 0x6c, 0x21, 0x3e, 0xd8, 0x27, 0x38, 0x3e, 0xd0, 0x4d, 0xf5, 0x3c,
  0x47, 0xd8, 0x01, 0xbd, 0x16, 0xbf, 0xe2, 0xbd, 0x00, 0x5e, 0x9f, 0x3d,
  0x88, 0x53, 0xbc, 0x3d, 0xb0, 0x47, 0x86, 0x3d, 0xf9, 0xe2, 0x91, 0x3c,
  0xb9, 0x11, 0xc5, 0xbc, 0x15, 0x77, 0x09, 0x3e, 0xe7, 0xf8, 0x1d, 0x3e,
  0x51, 0xb3, 0x1c, 0x3e, 0xf0, 0x57, 0x1b, 0xbd, 0xf3, 0xc6, 0xa5, 0x3d,
  0x34, 0x47, 0x6e, 0xbd, 0xb6, 0x0c, 0x46, 0x3e, 0x77, 0xd8, 0xaf, 0xbd,
  0x92, 0x98, 0x38, 0x3d, 0x6a, 0xfb, 0x37, 0x3d, 0xd0, 0xe8, 0x98, 0x3d,
  0xc9, 0x0b, 0xb7, 0xbd, 0x87, 0x6b, 0x1e, 0x3c, 0x3a, 0x91, 0x01, 0xbe,
  0x8e, 0x03, 0x17, 0xbe, 0xac, 0xed, 0x87, 0xbc, 0x5f, 0x8e, 0x03, 0x3e,
  0x00, 0x17, 0x4d, 0xbc, 0x40, 0x05, 0x4e, 0x3c, 0x84, 0xbe, 0x50, 0x3d,
  0x3d, 0x55, 0x0e, 0x3e, 0x0a, 0x60, 0x49, 0xbe, 0x8e, 0xa1, 0xa1, 0xbd,
  0x21, 0x3f, 0x16, 0x3c, 0x97, 0x83, 0x54, 0x3d, 0xfc, 0x03, 0x75, 0xbd,
  0xb6, 0xa4, 0xea, 0xbd, 0xe2, 0xd8, 0xec, 0xbd, 0x5b, 0x0f, 0x15, 0xbd,
  0x3e, 0xba, 0x51, 0xbd, 0x3c, 0x69, 0x6b, 0xbe, 0x87, 0x78, 0x0b, 0xbe,
  0x6b, 0x20, 0xfb, 0xbc, 0x9f, 0xed, 0xaa, 0xbd, 0x29, 0x65, 0x08, 0x3e,
  0x42, 0x3b, 0xbb, 0xbd, 0x79, 0x66, 0xa6, 0x3b, 0xb2, 0xe4, 0x75, 0x3d,
  0x1d, 0x54, 0x4c, 0xbe, 0x71, 0x91, 0x0f, 0xbe, 0x53, 0x02, 0xb1, 0xbd,
  0xfa, 0xcb, 0xee, 0x3c, 0xaa, 0x09, 0xd3, 0xbc, 0x1e, 0x3c, 0x1c, 0xbe,
  0x1e, 0xbf, 0x91, 0x3d, 0x68, 0xe7, 0x30, 0x3d, 0x33, 0xc5, 0x24, 0xbe,
  0x51, 0xb6, 0x44, 0xbe, 0xa0, 0x94, 0x41, 0x3e, 0x40, 0x98, 0xde, 0xbb,
  0x93, 0x1e, 0xd1, 0xbd, 0x87, 0x14, 0x8d, 0x3d, 0x10, 0xd3, 0x07, 0x3e,
  0xad, 0x0e, 0x3b, 0xbe, 0x41, 0xc8, 0xbd, 0xbd, 0xac, 0x16, 0x44, 0x3c,
  0x99, 0xfb, 0xbd, 0x3d, 0x77, 0xef, 0x05, 0x3e, 0xd0, 0xbe, 0x54, 0xbe,
  0x33, 0x8a, 0x88, 0x3d, 0x8b, 0x89, 0x0a, 0x3e, 0xed, 0x9e, 0x0b, 0xbe,
  0x24, 0x3a, 0x80, 0xbc, 0x0a, 0x8f, 0x9b, 0xbd, 0x1b, 0xe7, 0x3a, 0x3d,
  0xbc, 0x69, 0x6e, 0x3d, 0x64, 0xbf, 0x00, 0x3d, 0x2e, 0xb0, 0xa8, 0x3d,
  0x6e, 0xf1, 0x3a, 0x3a, 0x52, 0x39, 0xce, 0xbd, 0xbb, 0x8c, 0x49, 0xbe,
  0x8e, 0xa2, 0x42, 0x3d, 0x57, 0x92, 0xed, 0x3b, 0x89, 0x7a, 0x56, 0x3d,
  0x36, 0x04, 0x49, 0xbe, 0xba, 0x74, 0xb6, 0xbc, 0x3c, 0xbd, 0xa0, 0x3c,
  0x67, 0xb3, 0x3b, 0x3d, 0x09, 0xf6, 0x0f, 0xbd, 0xbc, 0xd5, 0x5f, 0x3b,
  0xff, 0xa7, 0x8e, 0x3e, 0xf0, 0x88, 0x90, 0xbc, 0xc2, 0x48, 0xd9, 0xbd,
  0xd0, 0xc7, 0xd0, 0x3b, 0x50, 0x85, 0x43, 0x3d, 0xb5, 0xec, 0x88, 0x3c,
  0x63, 0x81, 0xa5, 0x3c, 0xdf, 0x59, 0x76, 0xbd, 0x9f, 0x22, 0xce, 0x3d,
  0x34, 0x8c, 0x77, 0x3c, 0x24, 0xf4, 0xa7, 0x3d, 0xf3, 0x8a, 0xeb, 0xbd,
  0x65, 0x24, 0x0c, 0x3d, 0x6a, 0x69, 0x1e, 0xbd, 0xfb, 0xc8, 0xc5, 0x3d,
  0x0f, 0x8d, 0x73, 0x3a, 0xc5, 0xfc, 0x47, 0xbd, 0x38, 0x34, 0xbb, 0x3d,
  0x13, 0x5d, 0x1f, 0x3e, 0xce, 0xf2, 0x5c, 0x3e, 0x9d, 0xca, 0xbd, 0xbd,
  0x0d, 0xd9, 0xa6, 0x3b, 0x86, 0xe8, 0x6d, 0xbc, 0x04, 0x33, 0xd5, 0xbc,
  0x5d, 0x66, 0xa5, 0xbd, 0x4b, 0x4a, 0x36, 0x3d, 0xb7, 0x1a, 0x5e, 0xbd,
  0xcf, 0x6f, 0x12, 0x3d, 0x95, 0xa8, 0x95, 0xbd, 0x61, 0x1d, 0xfc, 0x3d,
  0x77, 0x21, 0x99, 0xbc, 0x46, 0x79, 0x94, 0x3d, 0x0a, 0x7b, 0x7e, 0x3d,
  0x51, 0xbd, 0x1d, 0x3e, 0x3e, 0xa6, 0x12, 0xbd, 0x8f, 0x1b, 0xe3, 0x3d,
  0xa7, 0x37, 0x7b, 0x3d, 0x51, 0x79, 0x00, 0x3e, 0x0b, 0x62, 0x29, 0x3e,
  0x9c, 0xd2, 0xb6, 0x3c, 0x58, 0x26, 0x1e, 0x3d, 0x15, 0x82, 0xfb, 0x3d,
  0x86, 0x4e, 0xe9, 0xbc, 0xd7, 0xb0, 0x40, 0xbe, 0x5f, 0x9b, 0x52, 0xbd,
  0x10, 0xbb, 0x3c, 0x3e, 0x5c, 0xeb, 0x8e, 0xbc, 0x33, 0x31, 0x38, 0xbd,
  0x3a, 0x1a, 0x53, 0x3e, 0x76, 0x03, 0xc4, 0x3d, 0x22, 0xc7, 0x69, 0xbd,
  0xdb, 0x02, 0xa4, 0x3b, 0x33, 0xaf, 0x70, 0xbc, 0x3d, 0xc9, 0x31, 0xbd,
  0x8d, 0xf9, 0x9a, 0x3d, 0x13, 0x94, 0xac, 0x3c, 0xf7, 0xd0, 0xc5, 0x3d,
  0x9b, 0xdc, 0x5b, 0x3e, 0xe8, 0xa9, 0x01, 0x3e, 0x20, 0xc7, 0xd4, 0x3d,
  0x28, 0x72, 0x5c, 0x3d, 0xd2, 0xd7, 0xb0, 0x3d, 0x7f, 0xd5, 0x47, 0x3e,
  0x08, 0xa1, 0xb6, 0x3d, 0x36, 0x1d, 0x1b, 0x3e, 0x73, 0xd6, 0x0a, 0x3e,
  0x87, 0xc0, 0x95, 0xbd, 0xaf, 0x17, 0x75, 0xbd, 0xd3, 0x9a, 0x4d, 0x3e,
  0x9b, 0x63, 0x49, 0x3e, 0xab, 0xf4, 0xa6, 0xbb, 0x72, 0xf8, 0x0d, 0xbd,
  0x01, 0x70, 0xa6, 0x3d, 0xa0, 0x1f, 0x97, 0x3d, 0xd8, 0xa8, 0x8d, 0x3d,
  0xc0, 0x46, 0xd2, 0x3b, 0xc5, 0x5d, 0x4b, 0x3e, 0x9d, 0x1a, 0xd5, 0xbd,
  0xea, 0xec, 0x82, 0x3d, 0xc9, 0x54, 0x93, 0x3d, 0x5e, 0xfa, 0x2f, 0xbd,
  0x51, 0x40, 0x0c, 0x3e, 0xc8, 0x28, 0xec, 0xbd, 0xf3, 0x27, 0x28, 0x3e,
  0x60, 0x9a, 0x1f, 0x3d, 0xf8, 0xe6, 0x1d, 0x3e, 0x54, 0x13, 0x75, 0xbd,
  0x9c, 0x02, 0x97, 0xbd, 0x66, 0x2d, 0x46, 0x3c, 0xa4, 0x92, 0x10, 0x3e,
  0xc8, 0x9b, 0xaa, 0x3d, 0xc2, 0xd5, 0xe7, 0xbd, 0x1f, 0xe1, 0x8d, 0x3c,
  0x1c, 0x4b, 0xe9, 0x3d, 0x35, 0x32, 0x0a, 0xbe, 0x9a, 0x00, 0xd3, 0x3d,
  0x72, 0x61, 0x86, 0x3d, 0x0c, 0x76, 0xda, 0xbd, 0xd0, 0x74, 0x73, 0x3d,
  0x1b, 0xfb, 0x66, 0x3d, 0x97, 0x97, 0x23, 0x3d, 0x21, 0xc9, 0x38, 0xbd,
  0x6b, 0xe9, 0xaf, 0x3c, 0xf9, 0x31, 0xa3, 0xbc, 0xaa, 0x24, 0xcc, 0x3d,
  0xb4, 0x45, 0x49, 0x3e, 0xb6, 0xac, 0x0f, 0x3e, 0xaf, 0xa9, 0x75, 0xbd,
  0x77, 0x59, 0x88, 0xbd, 0x44, 0x34, 0x4c, 0x3d, 0xde, 0xac, 0x2a, 0xbe,
  0x43, 0xc2, 0x67, 0xbc, 0xcf, 0xba, 0xaf, 0x3d, 0x34, 0x35, 0x00, 0x3d,
  0x23, 0xeb, 0x9e, 0xbd, 0x48, 0xfe, 0xe0, 0x3c, 0xc0, 0xae, 0xa3, 0x3c,
  0xe6, 0xa6, 0x84, 0x3d, 0x0c, 0x4a, 0xbd, 0xbd, 0x60, 0x07, 0x87, 0x3b,
  0x9a, 0x36, 0x34, 0xbe, 0x66, 0x86, 0xb8, 0x3d, 0x07, 0x19, 0x14, 0x3e,
  0x04, 0xb2, 0xf5, 0xbd, 0x9e, 0x15, 0x8c, 0x3c, 0xb1, 0xad, 0xf3, 0xbc,
  0x05, 0xff, 0x17, 0xbe, 0x6b, 0xb6, 0xdc, 0x3d, 0xea, 0x9d, 0xaa, 0x3c,
  0x9d, 0x89, 0x10, 0x3e, 0x5a, 0xbc, 0xe4, 0xbd, 0x2e, 0x93, 0x95, 0x3d,
  0xed, 0x04, 0xd2, 0x3d, 0x51, 0x8b, 0x0b, 0x3c, 0xdc, 0x23, 0x94, 0x3d,
  0xdd, 0xbc, 0xa8, 0x3d, 0x04, 0x32, 0x8e, 0xbd, 0x1e, 0x29, 0xe2, 0xbd,
  0x9d, 0x07, 0x30, 0xbd, 0xf6, 0x3a, 0x12, 0x3e, 0x70, 0x85, 0x28, 0x3b,
  0x26, 0x1f, 0x4a, 0xbe, 0x8b, 0xf7, 0xdc, 0x3d, 0x65, 0x44, 0xa4, 0x3d,
  0x75, 0xa2, 0xf0, 0xbc, 0x98, 0x2b, 0xc9, 0xbc, 0xee, 0x2c, 0xdf, 0x3d,
  0x19, 0x26, 0x2d, 0xbe, 0xde, 0x02, 0xa6, 0x3d, 0x7d, 0xd3, 0x47, 0x3d,
  0xd3, 0x9c, 0x08, 0xbe, 0x64, 0x36, 0x20, 0xbe, 0xe8, 0x57, 0x56, 0x3c,
  0xc5, 0x9d, 0x2b, 0xbc, 0x80, 0x9f, 0x52, 0xbd, 0x13, 0xb0, 0x79, 0xbd,
  0x81, 0xa8, 0x27, 0xbe, 0xde, 0x2d, 0x4e, 0x3e, 0xcf, 0x8b, 0xf4, 0x3d,
  0x78, 0xf0, 0x3c, 0xbd, 0xab, 0x43, 0x6f, 0xbd, 0xb2, 0xb2, 0xb8, 0x3d,
  0xb1, 0xfe, 0x0c, 0xbe, 0x85, 0x62, 0xa1, 0xbd, 0x7c, 0x24, 0x12, 0x3d,
  0xaf, 0x52, 0xea, 0x3d, 0x64, 0xcb, 0x00, 0xbb, 0xca, 0xec, 0xe2, 0xbc,
  0x77, 0xb1, 0x2a, 0x3e, 0x5c, 0xe1, 0x0c, 0xbe, 0x7e, 0xac, 0x09, 0xbd,
  0x9d, 0x40, 0xb1, 0x3d, 0x80, 0x7e, 0x28, 0x3d, 0xde, 0x28, 0x03, 0x3d,
  0x79, 0x2f, 0x6f, 0xbb, 0x76, 0x61, 0x6e, 0x3c, 0x90, 0xae, 0x07, 0xbe,
  0x20, 0x0b, 0x12, 0x3c, 0x00, 0x78, 0x89, 0x38, 0x58, 0x33, 0xa4, 0xbc,
  0x3d, 0x05, 0xf6, 0xbb, 0x9a, 0x8d, 0x46, 0xbd, 0xe7, 0x9e, 0x05, 0x3d,
  0xc8, 0xa9, 0xa1, 0x3d, 0xe5, 0x0a, 0x02, 0x3e, 0x1e, 0x32, 0x1b, 0xbe,
  0x8e, 0xd1, 0x22, 0x3d, 0x85, 0xe6, 0xdc, 0x3d, 0x99, 0xa0, 0x47, 0xbe,
  0x45, 0x64, 0xb2, 0xbd, 0x74, 0x2c, 0x1d, 0x3e, 0xcc, 0x15, 0x5a, 0x3e,
  0xee, 0x4b, 0x01, 0xbe, 0x7b, 0x5f, 0x0d, 0x3e, 0xe1, 0x3f, 0xbe, 0xbd,
  0x00, 0x79, 0x40, 0x3e, 0x92, 0xec, 0xe7, 0xbb, 0xad, 0xf8, 0x61, 0x3e,
  0x9d, 0xa1, 0x7c, 0x3d, 0x06, 0xf5, 0xf5, 0x3c, 0x93, 0xc1, 0x17, 0x3e,
  0x62, 0x3c, 0xf6, 0xbd, 0x62, 0xcc, 0x5c, 0xbd, 0xcd, 0xc2, 0x36, 0x3e,
  0x12, 0xd5, 0x20, 0xbd, 0x9a, 0xed, 0xa3, 0xbd, 0x84, 0xa3, 0x99, 0x3d,
  0x35, 0x51, 0x1e, 0x3e, 0x29, 0x29, 0x32, 0xbd, 0x62, 0x11, 0xd6, 0xbd,
  0x09, 0x2b, 0x16, 0x3e, 0x39, 0xd5, 0xf1, 0x3d, 0xe3, 0xdf, 0xfb, 0x3d,
  0xcf, 0x26, 0x52, 0x3d, 0x2b, 0x57, 0x69, 0x3c, 0xab, 0xd5, 0xd7, 0xbd,
  0xf5, 0xfd, 0x57, 0x3d, 0x64, 0x02, 0x52, 0xbe, 0x6d, 0xc0, 0x54, 0xbc,
  0x5a, 0xd5, 0x38, 0x3e, 0x3c, 0x3f, 0xd9, 0xbc, 0x39, 0x8a, 0x2c, 0x3e,
  0xfe, 0x77, 0x0c, 0xbc, 0x0d, 0x4a, 0xc3, 0x3d, 0xb5, 0x09, 0x64, 0xbe,
  0xca, 0xe3, 0xc2, 0xbd, 0x75, 0x62, 0x0c, 0x3e, 0x8a, 0x50, 0x44, 0xbd,
  0x31, 0xf3, 0x9a, 0x3c, 0xb5, 0x27, 0xce, 0xbd, 0xad, 0x40, 0xc5, 0x3d,
  0x08, 0x84, 0x11, 0xbe, 0x32, 0x6d, 0xaf, 0x3d, 0x63, 0x81, 0x17, 0xbe,
  0xea, 0xef, 0x0a, 0x3e, 0x16, 0x5d, 0x5b, 0x3d, 0xdf, 0xda, 0xc8, 0xbd,
  0x47, 0xe3, 0xc5, 0x3c, 0x6f, 0x5f, 0x99, 0xbd, 0x54, 0xaf, 0xda, 0xbd,
  0xd4, 0x84, 0x03, 0xbd, 0xe2, 0x44, 0x4c, 0xbd, 0x88, 0x13, 0xd6, 0x3c,
  0x16, 0x65, 0xde, 0xbc, 0x33, 0xbf, 0x89, 0x3c, 0x99, 0x14, 0xcd, 0x3d,
  0x16, 0xd3, 0xf9, 0xbd, 0x5d, 0xf4, 0x24, 0xbe, 0x3e, 0x1e, 0x90, 0xbc,
  0x25, 0xd9, 0x01, 0xbe, 0x79, 0x98, 0x6b, 0x3d, 0x65, 0x70, 0xe9, 0x3d,
  0xa1, 0x20, 0x31, 0xbe, 0xf3, 0xe7, 0xd0, 0xbc, 0x0a, 0xd0, 0x34, 0x3d,
  0x5f, 0x6b, 0x43, 0xbe, 0xe4, 0xf6, 0xab, 0xbd, 0x25, 0x4e, 0xaa, 0xbd,
  0xe2, 0xdc, 0xea, 0x3d, 0x62, 0xf3, 0x40, 0xbe, 0x70, 0xcb, 0x12, 0xbe,
  0xfb, 0xe0, 0x84, 0x3d, 0x21, 0x62, 0xd8, 0x3d, 0xb9, 0x6d, 0x78, 0xbd,
  0xf1, 0xd1, 0xc7, 0x3c, 0x62, 0xec, 0x6f, 0xbc, 0xa8, 0x74, 0x7e, 0x3d,
  0x14, 0x1e, 0x85, 0x3d, 0x9c, 0x34, 0x3f, 0xbe, 0xd5, 0x60, 0x9d, 0x3d,
  0xde, 0x30, 0x11, 0xbe, 0x9a, 0xce, 0x0d, 0x3d, 0x56, 0x52, 0xd0, 0xbc,
  0x86, 0x89, 0xe6, 0x3d, 0x90, 0x3d, 0xa1, 0x3d, 0xf8, 0xcc, 0x78, 0xbd,
  0xab, 0x65, 0xd5, 0xbb, 0x1f, 0xab, 0x21, 0x3d, 0x4c, 0xa2, 0x16, 0x3e,
  0xf0, 0xab, 0xd6, 0xbd, 0xfb, 0x5f, 0xc8, 0x3c, 0xd0, 0xa8, 0x9b, 0x3c,
  0x89, 0xef, 0x02, 0x3e, 0x5f, 0xc6, 0xf5, 0xbd, 0xf5, 0xdd, 0x6e, 0xbd,
  0x57, 0x74, 0x26, 0x3e, 0x76, 0xb2, 0xa0, 0xbd, 0xf8, 0xab, 0xea, 0x3d,
  0x40, 0xbd, 0xa1, 0xbd, 0x90, 0xe4, 0x02, 0xbd, 0xc6, 0x4c, 0xd2, 0x3d,
  0x28, 0xc5, 0x22, 0xbe, 0x9b, 0x91, 0x29, 0xbe, 0xce, 0xad, 0xf1, 0x3d,
  0xac, 0xa9, 0x6d, 0x3d, 0x98, 0xd3, 0x2b, 0xbe, 0x58, 0x57, 0x15, 0x3e,
  0x7c, 0x4b, 0xdc, 0xbc, 0x70, 0x49, 0x4d, 0x3d, 0x0e, 0x94, 0x35, 0x3e,
  0xa3, 0x1d, 0x27, 0xbe, 0x2c, 0x63, 0x86, 0xbd, 0xdb, 0xf8, 0x08, 0xbe,
  0x22, 0x7a, 0xfc, 0xbd, 0x55, 0xdd, 0x02, 0xbe, 0x74, 0xba, 0xa7, 0xbd,
  0x7a, 0x34, 0x5e, 0xbd, 0xd1, 0x0b, 0x74, 0xbc, 0xdb, 0xfb, 0x05, 0x3e,
  0x6c, 0x2b, 0x53, 0xbd, 0x08, 0x4c, 0x9f, 0xbd, 0xb2, 0xad, 0x87, 0x3d,
  0xb5, 0xd0, 0x9e, 0xbd, 0x95, 0x36, 0x30, 0xbe, 0xd6, 0x83, 0x0a, 0x3e,
  0xf3, 0xc5, 0x2e, 0x3e, 0x06, 0x7f, 0xba, 0xbd, 0x94, 0xc0, 0x20, 0x3e,
  0x93, 0x35, 0xf1, 0x3d, 0x74, 0x67, 0x96, 0xbd, 0xb6, 0x4d, 0xfb, 0x3d,
  0xaa, 0x27, 0xe0, 0x3d, 0x79, 0x77, 0x01, 0x3e, 0xc9, 0xe1, 0xc7, 0xbd,
  0x60, 0xed, 0x1a, 0xbd, 0x83, 0xca, 0xd7, 0x3d, 0xda, 0x9e, 0xb5, 0x3d,
  0x09, 0xd0, 0x2f, 0xbc, 0x2c, 0xc7, 0xe6, 0x3d, 0x89, 0x2a, 0xc3, 0xbd,
  0x6c, 0xad, 0x2e, 0x3d, 0xf8, 0x8e, 0xad, 0xbd, 0x8f, 0x50, 0x90, 0x3d,
  0x3f, 0x9f, 0x1e, 0x3e, 0xe6, 0xb4, 0x5e, 0x3d, 0x0f, 0x87, 0xc9, 0x3b,
  0xa1, 0x74, 0x4b, 0xbd, 0xa2, 0xaf, 0x5c, 0xbd, 0x7c, 0x75, 0x51, 0x3d,
  0xcb, 0x02, 0x16, 0x3d, 0x2a, 0x7f, 0x1d, 0x3e, 0x3c, 0x53, 0x52, 0x3d,
  0x62, 0x8d, 0x84, 0x3d, 0x0f, 0xd7, 0x23, 0x3e, 0x1c, 0x95, 0x1d, 0x3e,
  0x6b, 0x49, 0x82, 0xbd, 0x99, 0x7d, 0xed, 0xbd, 0xd3, 0x2f, 0x58, 0x3d,
  0x6f, 0xc2, 0x49, 0x3e, 0xe6, 0x92, 0x3e, 0x3d, 0x48, 0x79, 0x88, 0x3d,
  0x8e, 0x1e, 0x87, 0xbd, 0xed, 0xa8, 0x6c, 0xbd, 0x48, 0xa6, 0x3e, 0x3d,
  0xae, 0x7d, 0x75, 0xbd, 0xef, 0x8f, 0xce, 0xbd, 0xb9, 0xf3, 0xca, 0xbd,
  0x30, 0x5e, 0xb0, 0xbd, 0xd7, 0x97, 0xa4, 0x3d, 0x68, 0x8f, 0x6e, 0x3d,
  0x81, 0xda, 0x9b, 0x3d, 0x6f, 0xcc, 0x4e, 0x3e, 0x02, 0x0c, 0x09, 0xbe,
  0x2f, 0x11, 0xa4, 0xbd, 0xc9, 0xfe, 0x1f, 0x3e, 0xcb, 0xf2, 0x44, 0x3e,
  0x0b, 0x64, 0x2c, 0xbd, 0x0e, 0x41, 0xb6, 0x3c, 0x05, 0x8e, 0x83, 0x3d,
  0x5c, 0x4e, 0x00, 0xbe, 0x20, 0x27, 0x7d, 0xbd, 0x9a, 0xfd, 0xda, 0x3d,
  0xd0, 0x28, 0x8d, 0xbd, 0xd5, 0x7a, 0xcb, 0x3d, 0xb6, 0x60, 0x59, 0x3e,
  0x9a, 0x53, 0xb5, 0x3b, 0x20, 0x0a, 0x08, 0xbd, 0xef, 0xde, 0x61, 0x3e,
  0xa1, 0x3b, 0x85, 0x3c, 0xea, 0xc3, 0x53, 0xbd, 0x23, 0x39, 0x07, 0x3e,
  0x6e, 0x83, 0xc3, 0xbc, 0x5b, 0x83, 0xc6, 0xbc, 0x9d, 0xfa, 0xb8, 0xbd,
  0xab, 0xca, 0x00, 0x3d, 0xdf, 0x13, 0x07, 0xbe, 0xd0, 0x94, 0x03, 0x3d,
  0x23, 0xf7, 0x8e, 0x3d, 0x32, 0x54, 0xe4, 0x3d, 0x1b, 0x94, 0xf7, 0x3c,
  0x59, 0xcb, 0xea, 0xbd, 0x23, 0x56, 0x15, 0xbe, 0x56, 0xb1, 0x23, 0xbe,
  0x0b, 0x75, 0xb0, 0xbd, 0x8f, 0x0a, 0xb0, 0x3d, 0x98, 0x6f, 0x25, 0xbe,
  0x8c, 0x28, 0x5a, 0x3d, 0xac, 0xfa, 0xe9, 0xbd, 0x28, 0x43, 0x12, 0x3e,
  0xe1, 0xcc, 0x9c, 0xbd, 0xb1, 0x54, 0xc3, 0x3d, 0x9c, 0x10, 0x1a, 0xbe,
  0x00, 0xaf, 0xc9, 0xbd, 0xcb, 0xb8, 0xb6, 0xbd, 0x72, 0x74, 0xf8, 0xbb,
  0x76, 0x48, 0xf0, 0xbc, 0xa9, 0xb1, 0xcf, 0x3d, 0x67, 0x61, 0x8b, 0xbd,
  0x02, 0xf8, 0xf0, 0xbd, 0x1e, 0x28, 0x23, 0xbd, 0xc1, 0xfc, 0xae, 0x3d,
  0x28, 0x1b, 0x8c, 0x3d, 0x9e, 0xfa, 0xd3, 0x3d, 0xca, 0x21, 0xb3, 0xbc,
  0xee, 0x7e, 0xad, 0xbd, 0xfa, 0xb4, 0x9b, 0xbd, 0x29, 0x14, 0xfb, 0x3d,
  0x82, 0x22, 0xff, 0x3d, 0x26, 0x9a, 0x69, 0xbd, 0x85, 0xdf, 0xf0, 0x3d,
  0x18, 0x13, 0xb1, 0xbc, 0x90, 0x6a, 0x97, 0x3c, 0x7d, 0xa2, 0x07, 0xbe,
  0x2d, 0x0c, 0x0b, 0x3e, 0xf9, 0xbc, 0xb4, 0xbc, 0x39, 0x3a, 0x1d, 0xbe,
  0xb3, 0x84, 0xa5, 0xbd, 0xb4, 0x35, 0x4c, 0x3c, 0x10, 0xb7, 0x83, 0xbc,
  0x3e, 0x03, 0xaa, 0x3d, 0xe8, 0x30, 0xb3, 0xbd, 0x61, 0x3d, 0x19, 0xbd,
  0xde, 0x9e, 0x10, 0x3e, 0x40, 0x74, 0xdf, 0x3c, 0xab, 0x6c, 0x12, 0x3e,
  0x61, 0x3a, 0xc6, 0xbd, 0xc3, 0xf5, 0x49, 0x3d, 0x5f, 0x4a, 0x36, 0xbd,
  0xdd, 0x23, 0xbb, 0xbc, 0x53, 0x34, 0xac, 0xbd, 0x4f, 0xf1, 0xd3, 0x3d,
  0xce, 0xd2, 0x91, 0xbd, 0x15, 0x52, 0xd9, 0xbd, 0xc7, 0x37, 0xf1, 0x3d,
  0xf1, 0x5c, 0x0b, 0x3e, 0x37, 0xad, 0x28, 0xbe, 0xd5, 0xf4, 0xf6, 0xbb,
  0x5a, 0x5a, 0xfc, 0xbd, 0xc1, 0x16, 0xc8, 0x3d, 0x4e, 0xb9, 0xc7, 0x3d,
  0xea, 0xeb, 0x79, 0xbd, 0xa4, 0x45, 0x3b, 0x3d, 0x32, 0x62, 0xae, 0xbc,
  0x01, 0xba, 0xba, 0x3d, 0x66, 0xc2, 0xde, 0x3d, 0x5e, 0x39, 0x14, 0xbe,
  0x46, 0x97, 0x00, 0xbe, 0x00, 0x44, 0x40, 0x3a, 0x2f, 0xa9, 0x91, 0xbd,
  0xe4, 0xcd, 0xb3, 0x3d, 0x82, 0xb4, 0x14, 0xbe, 0x9b, 0xe8, 0xc3, 0x3d,
  0x8a, 0x22, 0xc5, 0xbc, 0x7d, 0x61, 0x94, 0xbd, 0x9d, 0x36, 0xd3, 0x3b,
  0x7c, 0x0d, 0x0d, 0xbe, 0x0c, 0x31, 0x5d, 0x3d, 0x34, 0xac, 0x1c, 0xbe,
  0xa4, 0xef, 0x30, 0x3d, 0x9e, 0xef, 0xa0, 0x3c, 0xaf, 0x76, 0xc5, 0xbd,
  0xd8, 0x7b, 0x9e, 0x3d, 0x0a, 0x44, 0xe4, 0xbd, 0x02, 0x75, 0x88, 0x3d,
  0x6e, 0x11, 0xe1, 0xbd, 0xf3, 0x60, 0xeb, 0x3d, 0x90, 0xe2, 0x19, 0xbc,
  0x84, 0xe5, 0xf6, 0x3d, 0x6d, 0x2e, 0xcb, 0xbd, 0x08, 0x89, 0x4f, 0xbb,
  0x3f, 0x84, 0x62, 0xbd, 0xcc, 0xa6, 0xaf, 0xbd, 0xd4, 0xcf, 0x38, 0x3d,
  0xe1, 0xd3, 0x91, 0x3c, 0xf3, 0x0e, 0x94, 0xbd, 0x2e, 0x76, 0x39, 0xbd,
  0x48, 0xbc, 0xaf, 0x3d, 0x2a, 0xab, 0xe9, 0x3d, 0xec, 0x7f, 0x1c, 0xbe,
  0xc6, 0xad, 0x25, 0xbd, 0x64, 0x9f, 0xca, 0xb9, 0xe6, 0x0e, 0xa5, 0x3d,
  0x04, 0xfa, 0x04, 0xbe, 0x70, 0x0f, 0x02, 0x3e, 0xd8, 0x16, 0xf2, 0xbd,
  0xa0, 0x12, 0x82, 0x3c, 0xfc, 0xab, 0x38, 0x3d, 0xd6, 0xea, 0x9d, 0xbd,
  0x3d, 0xbb, 0x0b, 0x3e, 0x73, 0xde, 0x66, 0x3d, 0x7a, 0xd5, 0x8b, 0xbd,
  0x74, 0x4c, 0xd3, 0xbd, 0xbf, 0x37, 0xf3, 0xbd, 0x29, 0x7c, 0x0d, 0x3e,
  0x8f, 0x22, 0xbe, 0x3d, 0xb8, 0x67, 0xad, 0xbc, 0x1e, 0x6d, 0x80, 0xbd,
  0x3f, 0xd6, 0xf6, 0x3d, 0x20, 0xd6, 0xa1, 0xbd, 0x32, 0x51, 0xff, 0xbd,
  0xd7, 0x17, 0x1a, 0xbe, 0xcd, 0xc5, 0xf2, 0x3d, 0x7f, 0x86, 0xac, 0xbd,
  0x2e, 0xf6, 0x8d, 0x3d, 0x60, 0xb8, 0x03, 0xbe, 0x5e, 0x0c, 0x79, 0xbd,
  0xee, 0xb6, 0xd4, 0xbd, 0x2d, 0x08, 0xb3, 0x3d, 0x6f, 0xfe, 0x9d, 0x3d,
  0x98, 0x66, 0xd5, 0x3d, 0xf8, 0x8e, 0xfd, 0xbd, 0x1a, 0x73, 0x9a, 0x3b,
  0xef, 0xdd, 0x53, 0x3d, 0xbb, 0xc5, 0x14, 0x3e, 0x19, 0xae, 0x72, 0x3d,
  0xde, 0x0f, 0x05, 0xbe, 0xdb, 0xf7, 0xd9, 0xbd, 0x15, 0x9a, 0x6f, 0x3b,
  0x0e, 0x28, 0x85, 0xbd, 0x10, 0xbb, 0xca, 0x3c, 0xde, 0xa1, 0x97, 0x3d,
  0x36, 0xf6, 0x16, 0xbe, 0x6b, 0x08, 0x8b, 0xbd, 0x11, 0x7e, 0xc0, 0x3d,
  0x5b, 0x41, 0x3f, 0xbd, 0xa9, 0x2a, 0x00, 0x3e, 0xc0, 0x89, 0xdf, 0xbd,
  0x3d, 0x90, 0x91, 0x3c, 0xfd, 0x0d, 0xf8, 0x3d, 0x0d, 0x98, 0xb3, 0x3d,
  0x89, 0x2d, 0x03, 0xbd, 0xce, 0xcb, 0xc8, 0xbd, 0x83, 0x49, 0xe9, 0xbd,
  0xf0, 0x35, 0xd9, 0xba, 0xf5, 0x3f, 0x1b, 0xbe, 0x2c, 0xe2, 0x89, 0x3d,
  0xc8, 0xba, 0xcd, 0xbc, 0xaa, 0xfb, 0x01, 0x3e, 0x33, 0xd4, 0x4a, 0x3d,
  0x82, 0x70, 0x99, 0xbd, 0x5f, 0x79, 0x39, 0xbd, 0x97, 0x1e, 0x0d, 0x3e,
  0x7c, 0x10, 0x04, 0xbe, 0x2a, 0xd4, 0x04, 0xbe, 0xc5, 0xc5, 0x95, 0x3d,
  0x75, 0xc5, 0x22, 0x3d, 0xa3, 0x0c, 0xc7, 0xbd, 0x45, 0x46, 0x8c, 0xbd,
  0xaa, 0x6a, 0x43, 0xbd, 0x31, 0x74, 0xb7, 0x3d, 0x3b, 0x92, 0xbe, 0xbc,
  0xc6, 0x41, 0x37, 0xbd, 0xcd, 0xd2, 0x02, 0x3e, 0xc7, 0x03, 0x66, 0x3c,
  0x4a, 0xdf, 0xdd, 0x3d, 0xd5, 0x33, 0xfb, 0xbd, 0x52, 0xe2, 0xcc, 0xbc,
  0xdd, 0x7e, 0xf9, 0x3d, 0x89, 0x25, 0x8a, 0x3d, 0xaf, 0x16, 0xcd, 0xbd,
  0x07, 0x3b, 0x0a, 0xbe, 0x76, 0xad, 0x9c, 0xbd, 0x10, 0x73, 0x47, 0x3c,
  0x27, 0x17, 0x16, 0xbe, 0xda, 0xd1, 0x1b, 0xbd, 0xa4, 0x31, 0x79, 0xbd,
  0x67, 0xa3, 0x89, 0x3c, 0xde, 0x31, 0xbe, 0x3d, 0x87, 0x7f, 0xb9, 0xbd,
  0xc8, 0xc7, 0x00, 0x3e, 0xeb, 0x59, 0xa7, 0xbb, 0x59, 0x9a, 0x7e, 0x3d,
  0x34, 0x63, 0xfa, 0xbd, 0x5e, 0x15, 0xb5, 0x3d, 0x44, 0x99, 0xa6, 0x3c,
  0xb3, 0xd7, 0x0e, 0x3e, 0x8e, 0x87, 0x76, 0xbd, 0xda, 0x7b, 0xf0, 0x3d,
  0x4f, 0x2a, 0x05, 0xbe, 0x31, 0x10, 0xf2, 0x3b, 0x1a, 0x92, 0xff, 0xbd,
  0x23, 0x6c, 0xcc, 0xbd, 0x59, 0xc6, 0xd2, 0xbd, 0xea, 0xcb, 0x0f, 0xbd,
  0x00, 0x92, 0x6f, 0xbc, 0xbe, 0x4c, 0xda, 0x3d, 0x71, 0x12, 0xe0, 0x3b,
  0xfa, 0x50, 0x06, 0x3d, 0x0f, 0x0f, 0x2b, 0xbd, 0x6b, 0xdf, 0x0b, 0xbe,
  0xba, 0xab, 0x3e, 0x3d, 0x2a, 0xd2, 0x6f, 0x3d, 0xc3, 0x8d, 0xd0, 0x3d,
  0x65, 0x2d, 0xb2, 0xbb, 0x2a, 0xf1, 0xf1, 0x3d, 0x52, 0x2a, 0x09, 0xbd,
  0x6c, 0x05, 0xe8, 0x3c, 0xbc, 0xf4, 0x88, 0xbb, 0xb4, 0x15, 0x1c, 0x3e,
  0x8f, 0xb0, 0x00, 0xbe, 0xd0, 0x1d, 0x3d, 0xbc, 0xe2, 0x28, 0xdc, 0x3d,
  0x6d, 0xf9, 0x4e, 0x3d, 0x6f, 0x78, 0xb2, 0xbd, 0x2f, 0xb3, 0xd1, 0xbd,
  0x34, 0x23, 0x98, 0x3d, 0xab, 0xb0, 0xc2, 0xbd, 0x25, 0x17, 0x1e, 0x3e,
  0xf0, 0x76, 0xb7, 0xbd, 0x56, 0x98, 0x0e, 0xbd, 0x02, 0x69, 0x13, 0x3e,
  0x87, 0x67, 0x73, 0xbd, 0x9a, 0xd1, 0xbf, 0xbd, 0x16, 0xf9, 0x18, 0xbe,
  0x0b, 0xe6, 0x82, 0xbd, 0xc4, 0xe2, 0x4f, 0x3d, 0x20, 0x6c, 0x99, 0xbc,
  0x80, 0x3d, 0x0c, 0x3e, 0x0e, 0x00, 0xa0, 0x3a, 0xee, 0x36, 0xe6, 0x3d,
  0xfb, 0xc9, 0x16, 0xbc, 0x7f, 0x2d, 0x2d, 0xbb, 0xcd, 0x88, 0x30, 0x3d,
  0x19, 0x02, 0x37, 0x3e, 0x89, 0xb0, 0x37, 0x3d, 0x35, 0xbc, 0xed, 0xbd,
  0xef, 0x9d, 0x30, 0x3e, 0xce, 0xa8, 0xa4, 0x3d, 0x96, 0xa0, 0x05, 0xbd,
  0xc5, 0xec, 0x9b, 0xbd, 0x2f, 0x43, 0x1b, 0x3d, 0x05, 0x43, 0x15, 0x3e,
  0xb0, 0xdc, 0x28, 0xbd, 0x07, 0x7d, 0x2f, 0xbd, 0x7d, 0x59, 0xe8, 0x3d,
  0x50, 0x6f, 0x8e, 0xbc, 0x2a, 0x1e, 0xdd, 0x3d, 0x4f, 0x6b, 0xb6, 0x3d,
  0x7e, 0x68, 0x0c, 0xbc, 0xe3, 0x49, 0x1c, 0x3e, 0x9a, 0xc5, 0x03, 0x3e,
  0x0d, 0xff, 0x1e, 0x3e, 0x3f, 0xd8, 0xd4, 0x3d, 0xe1, 0x39, 0xab, 0x3d,
  0xec, 0x9f, 0xa2, 0xbc, 0x5e, 0x67, 0xd0, 0xbd, 0x77, 0x06, 0x3e, 0x3e,
  0x26, 0xbf, 0xd2, 0x3d, 0xb6, 0xe4, 0xfd, 0x3d, 0xf4, 0x3d, 0x18, 0x3e,
  0x97, 0xa4, 0x36, 0x3e, 0x53, 0xe7, 0x9a, 0xbd, 0x32, 0x28, 0xf9, 0x3d,
  0xca, 0xb7, 0xeb, 0x3c, 0x72, 0x2c, 0xd8, 0x3d, 0x2d, 0xee, 0xe3, 0x3c,
  0x21, 0x25, 0xd6, 0xba, 0xce, 0x19, 0x24, 0x3c, 0x1a, 0x47, 0x7c, 0x3c,
  0x9c, 0x51, 0x0e, 0x3e, 0x33, 0x66, 0x7c, 0xbd, 0x14, 0xd3, 0xf5, 0x3c,
  0xa1, 0x75, 0x5c, 0x3e, 0x54, 0x9c, 0xaa, 0x3d, 0xd5, 0x73, 0xb3, 0xbd,
  0x38, 0x72, 0x9c, 0xbd, 0x22, 0xf8, 0x3d, 0x3e, 0x62, 0xea, 0x15, 0x3e,
  0x4d, 0xf5, 0x1d, 0x3e, 0x12, 0x7f, 0xa8, 0xbd, 0x65, 0xa2, 0x37, 0x3e,
  0xae, 0x6b, 0xcd, 0x3d, 0x7b, 0x63, 0x9e, 0xbd, 0x77, 0xe1, 0xa7, 0xbc,
  0x1a, 0xd6, 0x31, 0x3e, 0x4b, 0x2d, 0x83, 0x3c, 0x12, 0xec, 0xd3, 0xbc,
  0x6a, 0x5e, 0xc7, 0x3c, 0x34, 0xf0, 0xc6, 0x3c, 0x70, 0x3a, 0x56, 0x3c,
  0x58, 0x45, 0x6a, 0x3d, 0x4c, 0xc6, 0x26, 0x3e, 0x40, 0xa1, 0xe0, 0x3c,
  0x67, 0xcc, 0x49, 0xba, 0x87, 0x4b, 0x05, 0x3e, 0x06, 0x3d, 0x6a, 0x3d,
  0x1d, 0xe0, 0xa1, 0x3d, 0x47, 0x6a, 0x61, 0xbd, 0x08, 0x88, 0xc9, 0xbc,
  0x23, 0x2d, 0x89, 0x3d, 0xf1, 0x3b, 0x51, 0x3e, 0x63, 0x99, 0xbc, 0xbd,
  0xd2, 0x6d, 0x89, 0xbc, 0x65, 0xb0, 0x9c, 0xbb, 0xc6, 0xe7, 0x3e, 0x3e,
  0xa4, 0x2c, 0x89, 0x3d, 0xf8, 0x71, 0xc6, 0xbd, 0xb7, 0x71, 0x1e, 0x3e,
  0xe1, 0xf9, 0xcc, 0x3d, 0xb7, 0x4c, 0x35, 0x3e, 0x19, 0xec, 0xb1, 0xbc,
  0x6e, 0xfd, 0x6f, 0x3d, 0xe1, 0x45, 0xf3, 0x3d, 0xd6, 0xe9, 0xdd, 0x3d,
  0x01, 0xb4, 0x76, 0xbd, 0x70, 0xcc, 0xe7, 0x3d, 0x3e, 0x69, 0x95, 0xbd,
  0x12, 0xf2, 0x1b, 0x3e, 0x9c, 0x5d, 0x32, 0x3e, 0x09, 0x2f, 0x90, 0xbd,
  0x13, 0xf1, 0x4e, 0x3d, 0x28, 0x84, 0x50, 0x3d, 0x00, 0x76, 0xc8, 0x3c,
  0x8c, 0x6a, 0xe8, 0x3a, 0xd9, 0x24, 0x1d, 0x3e, 0xff, 0x2b, 0xa6, 0xbc,
  0xea, 0x0a, 0x3e, 0xbd, 0xaa, 0xf6, 0x54, 0x3e, 0x85, 0x6f, 0x38, 0x3e,
  0x45, 0x88, 0x44, 0x3e, 0x56, 0x7f, 0xd4, 0xbd, 0xcb, 0x25, 0x81, 0xbd,
  0xca, 0xa9, 0x5d, 0x3e, 0xea, 0x4d, 0x27, 0x3e, 0xcd, 0x27, 0x9f, 0x3d,
  0xbf, 0xa5, 0x31, 0xbc, 0x5d, 0xc1, 0x7f, 0xbd, 0xa6, 0x93, 0x92, 0x3d,
  0x80, 0xbc, 0xc6, 0xbd, 0x3d, 0xcb, 0xed, 0xbd, 0x8b, 0xa6, 0x0a, 0x3e,
  0x10, 0x83, 0xe7, 0xbd, 0x66, 0x90, 0x21, 0x3e, 0xb0, 0x7c, 0x1b, 0x3e,
  0x8c, 0xc7, 0x1a, 0x3d, 0x4f, 0xda, 0x20, 0xbd, 0xa8, 0x62, 0x8c, 0xbd,
  0x73, 0x93, 0x19, 0x3d, 0x22, 0xd5, 0x23, 0x3e, 0x43, 0xe8, 0x06, 0xbd,
  0x23, 0xc7, 0xf7, 0xbd, 0xe9, 0xfe, 0x14, 0x3e, 0x52, 0xc5, 0xaf, 0xba,
  0x40, 0x6e, 0x95, 0xbd, 0xf0, 0x86, 0xdd, 0xbc, 0x0c, 0xaa, 0x24, 0x3e,
  0xa3, 0x2c, 0x12, 0x3e, 0x3d, 0x45, 0xc5, 0x3d, 0x37, 0x34, 0x4c, 0xbd,
  0x1f, 0xe4, 0x01, 0x3e, 0x50, 0xc8, 0x6b, 0xbd, 0x2c, 0xe4, 0xc1, 0xbd,
  0x96, 0x16, 0x15, 0x3e, 0x48, 0x5f, 0xe7, 0x3c, 0xba, 0x5a, 0x3b, 0x3e,
  0x6a, 0x1a, 0x79, 0x3d, 0x83, 0x7e, 0xef, 0xbd, 0x3b, 0x6f, 0x36, 0xbd,
  0x82, 0xad, 0x87, 0x3c, 0x20, 0x17, 0x8e, 0x3d, 0x1f, 0x6d, 0x06, 0xbe,
  0x9d, 0x74, 0x1f, 0x3e, 0x0b, 0xe4, 0x8e, 0x3d, 0x73, 0x07, 0xb7, 0xbc,
  0x0e, 0xc7, 0x36, 0x3e, 0x74, 0x01, 0xb6, 0xbd, 0xf8, 0x77, 0xc3, 0xbd,
  0x3c, 0xa1, 0xb9, 0x3d, 0x55, 0x6d, 0xe9, 0x3d, 0xd2, 0x0b, 0xf7, 0xbd,
  0xdf, 0x3d, 0x48, 0x3d, 0x61, 0x94, 0xac, 0x3d, 0xf1, 0x66, 0x91, 0xbd,
  0x93, 0x60, 0xd0, 0xbc, 0x1a, 0x3b, 0xb0, 0xbd, 0x28, 0xe6, 0xab, 0xbd,
  0x02, 0x0a, 0x3c, 0xbd, 0x43, 0x0c, 0xf9, 0xbd, 0x63, 0x3d, 0x01, 0x3e,
  0x80, 0xd2, 0x1d, 0xbd, 0x1a, 0x86, 0x14, 0x3e, 0x98, 0x9c, 0xc5, 0xbd,
  0x69, 0x9b, 0xdd, 0x3d, 0xf2, 0xcd, 0x30, 0x3e, 0xfe, 0x15, 0xef, 0x3d,
  0x39, 0x91, 0x0d, 0x3e, 0x58, 0x33, 0x25, 0x3d, 0x43, 0xfa, 0x40, 0xbc,
  0x34, 0xc2, 0x03, 0xbd, 0x0a, 0xb4, 0x79, 0x3c, 0x7a, 0x07, 0x85, 0x3d,
  0x08, 0xc2, 0x96, 0xbc, 0xc0, 0x5e, 0xb5, 0x3b, 0xc0, 0xea, 0x69, 0x3b,
  0xb8, 0xf2, 0x28, 0x3e, 0x2a, 0x7d, 0x5a, 0xbd, 0x7a, 0x74, 0xe2, 0x3d,
  0x23, 0xba, 0x2d, 0x3d, 0x1d, 0xa2, 0xeb, 0x3a, 0x70, 0xd7, 0xef, 0xbd,
  0xfd, 0x5e, 0x6a, 0x3d, 0x35, 0xd1, 0xc2, 0xbc, 0xa5, 0xf8, 0x0a, 0xbe,
  0x73, 0xc2, 0x24, 0x3d, 0x78, 0x24, 0xbc, 0x3d, 0x5d, 0xac, 0x03, 0x3e,
  0xb3, 0x2b, 0x12, 0x3d, 0xda, 0x0e, 0xcb, 0x3d, 0xa8, 0x11, 0x7a, 0x3d,
  0x56, 0xe9, 0x8a, 0xbd, 0x58, 0x1b, 0xad, 0xbd, 0x49, 0x25, 0x3c, 0x3e,
  0xf1, 0x5b, 0x8e, 0x3c, 0xdc, 0xc3, 0xdb, 0xbc, 0x34, 0x93, 0x03, 0xbe,
  0x28, 0x81, 0x50, 0xbc, 0x07, 0x49, 0x41, 0x3e, 0x6f, 0x6c, 0x2e, 0x3c,
  0x4f, 0xf6, 0x20, 0x3e, 0x61, 0xa3, 0xc0, 0xbd, 0x0a, 0x66, 0x87, 0x3d,
  0xbb, 0xd6, 0x04, 0x3e, 0xde, 0x3f, 0xe5, 0x3d, 0x3a, 0x2a, 0xc9, 0x3d,
  0x0a, 0x77, 0x21, 0xbd, 0x79, 0xa7, 0x50, 0xbd, 0x94, 0xe1, 0x17, 0xbd,
  0x42, 0x22, 0x76, 0xbd, 0x2a, 0x36, 0x07, 0x3e, 0x75, 0x62, 0x9a, 0x3d,
  0x96, 0xa8, 0x6e, 0xbd, 0x9f, 0x44, 0x87, 0xbd, 0xa6, 0xae, 0x41, 0x3d,
  0x99, 0xa6, 0xd1, 0xbd, 0xae, 0x87, 0x5e, 0xbd, 0xa0, 0x40, 0x8c, 0xbd,
  0x6d, 0x50, 0xa4, 0x3d, 0xdc, 0x0e, 0xe8, 0xbd, 0x6f, 0x7d, 0xdd, 0x3d,
  0xf6, 0x2b, 0xc9, 0x3d, 0xe8, 0xde, 0x8b, 0xbd, 0xf1, 0x2e, 0x28, 0xbe,
  0x9d, 0xfe, 0x30, 0xbc, 0x68, 0xee, 0x99, 0x3d, 0x20, 0x69, 0x12, 0x3d,
  0x12, 0xae, 0x14, 0xbc, 0x4b, 0x03, 0xa1, 0x3d, 0xbe, 0xf8, 0x8b, 0x3d,
  0x4a, 0x6b, 0xb3, 0xbd, 0x6d, 0x0d, 0xbf, 0x39, 0x93, 0x96, 0xc6, 0xbd,
  0x6c, 0x7e, 0x05, 0xbe, 0x00, 0x98, 0x00, 0xbe, 0x46, 0x71, 0x60, 0x3d,
  0x08, 0x23, 0x95, 0x3d, 0xa8, 0xe4, 0x4c, 0x3d, 0x4e, 0xf2, 0xf1, 0x3d,
  0x4e, 0x64, 0x57, 0xbd, 0x00, 0x2d, 0x8a, 0xb9, 0xfe, 0xc2, 0x3c, 0x3d,
  0xeb, 0x66, 0x07, 0xbe, 0xe5, 0x77, 0xa0, 0xbd, 0xed, 0x01, 0x41, 0xbd,
  0x0b, 0xe0, 0x53, 0x3c, 0x01, 0x93, 0x3c, 0x3d, 0x65, 0x27, 0x16, 0x3d,
  0x10, 0xe4, 0x14, 0x3c, 0x07, 0xb7, 0x22, 0xbd, 0xf4, 0x0b, 0x99, 0xbd,
  0x8d, 0xa5, 0xad, 0x3d, 0x23, 0x21, 0x7b, 0x3d, 0xe4, 0x52, 0x2b, 0x3d,
  0x1c, 0x9b, 0xae, 0x3d, 0x33, 0x4f, 0xe5, 0x3b, 0x36, 0xab, 0x8a, 0x3b,
  0x6a, 0x63, 0x0c, 0x3d, 0xe7, 0xd2, 0xd8, 0x3d, 0x6f, 0x1a, 0x20, 0xbe,
  0x33, 0x1e, 0x9b, 0xbd, 0xbf, 0xbd, 0x95, 0x3d, 0xac, 0x72, 0x51, 0x3d,
  0x6e, 0xee, 0xa3, 0x3d, 0xa8, 0x3f, 0x1b, 0x3d, 0xc5, 0xf5, 0x03, 0xbd,
  0xe5, 0xa7, 0xe8, 0x3d, 0x63, 0xec, 0xed, 0x3d, 0x41, 0x2f, 0xea, 0xbd,
  0xc4, 0xae, 0x3f, 0x3d, 0xaf, 0x04, 0x0f, 0x3e, 0x3b, 0x15, 0xbb, 0x3d,
  0x39, 0xfe, 0x24, 0xbe, 0xf0, 0x42, 0x25, 0x3d, 0xdc, 0xd2, 0x1b, 0xbe,
  0x1e, 0x30, 0xc4, 0xbd, 0xa0, 0x69, 0x94, 0x3d, 0xf0, 0x6e, 0x1d, 0xbe,
  0xd9, 0x45, 0xdb, 0x3d, 0x77, 0x21, 0x16, 0x3e, 0x66, 0xaa, 0xd2, 0x3d,
  0x53, 0xa6, 0x92, 0xbd, 0x24, 0x9a, 0x9d, 0x3d, 0x1a, 0xe8, 0xb9, 0xbd,
  0xa4, 0x0b, 0x9e, 0x3a, 0x36, 0x76, 0xbf, 0x3d, 0x5e, 0xd3, 0xd8, 0x3d,
  0x69, 0xbd, 0xea, 0x3d, 0x6d, 0x7f, 0x03, 0x3e, 0x1b, 0xb0, 0xc4, 0x3c,
  0xcb, 0xaf, 0x55, 0x3d, 0x73, 0xb3, 0x1c, 0xbe, 0xcd, 0x0b, 0xc0, 0xbd,
  0x76, 0x36, 0xe9, 0x3d, 0xc8, 0x33, 0xb2, 0x3c, 0x15, 0xc4, 0xee, 0x3d,
  0x70, 0x14, 0x9b, 0x3d, 0xae, 0xf7, 0x92, 0x3a, 0xde, 0xb9, 0x5f, 0xbc,
  0x5d, 0xe3, 0xc0, 0xbd, 0xb2, 0x88, 0x98, 0x3d, 0x9e, 0x00, 0x9b, 0x3d,
  0xb0, 0x32, 0xdb, 0x3c, 0x63, 0x09, 0xff, 0xbd, 0xb8, 0xf8, 0xa8, 0x3d,
  0x77, 0xd3, 0xed, 0xbd, 0x5c, 0x8c, 0xc2, 0xbd, 0x5c, 0x59, 0xf9, 0xbd,
  0xa2, 0xfc, 0x19, 0xbe, 0x34, 0x1b, 0xb6, 0xbd, 0xb6, 0x99, 0xb6, 0x3d,
  0x4a, 0x4f, 0xc0, 0xbb, 0x43, 0x9a, 0x1b, 0xbe, 0x7b, 0x5a, 0xfe, 0xbc,
  0xd7, 0xc9, 0x14, 0xbe, 0x40, 0xc5, 0x04, 0x3e, 0xa6, 0xe4, 0x08, 0x3d,
  0xee, 0xf3, 0xb1, 0x3d, 0xaa, 0x02, 0xe7, 0xbd, 0x9f, 0xa5, 0x51, 0x3d,
  0xdb, 0x75, 0x09, 0xbe, 0x1c, 0x48, 0x24, 0xbe, 0xc2, 0xf3, 0x3d, 0xbd,
  0x69, 0x3a, 0x07, 0x3e, 0x91, 0xba, 0xa7, 0xbd, 0x5a, 0xfd, 0xc1, 0x3d,
  0xb5, 0xfc, 0xf7, 0xbb, 0x14, 0xa6, 0xca, 0xbb, 0x22, 0x60, 0xda, 0x3d,
  0x29, 0x41, 0x88, 0x3d, 0xef, 0x31, 0x97, 0x3d, 0x08, 0xcd, 0x76, 0x3d,
  0x66, 0x6c, 0x35, 0x3d, 0xe0, 0xdc, 0xa2, 0x3d, 0xf8, 0xab, 0xbe, 0xbc,
  0x23, 0x1d, 0x18, 0xbd, 0x26, 0xd1, 0x42, 0x3d, 0x21, 0x5b, 0x0a, 0xbe,
  0x38, 0x72, 0xbb, 0x3d, 0x18, 0x06, 0x3f, 0x39, 0xbd, 0x61, 0x09, 0xbe,
  0x05, 0xc6, 0x18, 0x3d, 0x25, 0x21, 0xb9, 0xbc, 0x92, 0x36, 0xe6, 0xbc,
  0x7b, 0xeb, 0x3f, 0x3d, 0x29, 0xe6, 0xde, 0x3d, 0x67, 0x43, 0x1e, 0xbe,
  0x67, 0xf8, 0x1d, 0xbd, 0xd2, 0x12, 0x1e, 0xbe, 0xe8, 0xe8, 0x7c, 0xbd,
  0xfe, 0x80, 0xee, 0x3d, 0x5a, 0x65, 0xd4, 0xbd, 0x56, 0xec, 0xb0, 0x3d,
  0x33, 0x26, 0xaf, 0xbd, 0x4c, 0x53, 0x83, 0x3d, 0x5c, 0x47, 0x09, 0x3e,
  0x4a, 0x00, 0xda, 0x3d, 0xdd, 0xc5, 0x29, 0xbe, 0x06, 0x4c, 0x91, 0xbd,
  0x14, 0x28, 0x11, 0x3d, 0x9e, 0xc8, 0x10, 0xbe, 0xc7, 0x61, 0x7b, 0xbd,
  0xae, 0xef, 0xec, 0xbd, 0x12, 0x43, 0xbe, 0xbc, 0x4e, 0xe2, 0xca, 0xbd,
  0xea, 0xe7, 0xa1, 0x3d, 0x2a, 0x8c, 0xd7, 0x3d, 0x49, 0x9f, 0x88, 0xbd,
  0xd9, 0xf4, 0x3d, 0xbd, 0x75, 0x6e, 0x0b, 0x3d, 0x4a, 0x5b, 0x06, 0xbe,
  0xcb, 0x6c, 0xda, 0x3d, 0x67, 0x6b, 0x0d, 0xbc, 0xa9, 0x20, 0x94, 0x3c,
  0xa6, 0xc0, 0x7c, 0xbd, 0xa6, 0xa3, 0x11, 0x3e, 0x7c, 0xc4, 0x11, 0xbe,
  0xeb, 0x37, 0x69, 0x3b, 0x92, 0x26, 0x36, 0xbd, 0x63, 0x1b, 0x28, 0xbe,
  0x5a, 0x64, 0x0c, 0x3e, 0x15, 0x73, 0x05, 0x3e, 0x2c, 0x72, 0x27, 0x3d,
  0x54, 0x74, 0xa7, 0xbd, 0x6f, 0xbf, 0xbe, 0xbd, 0xbf, 0x1f, 0x87, 0x3d,
  0x35, 0x67, 0x0d, 0xbe, 0x51, 0x41, 0xf3, 0x3c, 0x30, 0xd1, 0xa5, 0xbd,
  0x01, 0x27, 0x52, 0x3c, 0x55, 0x34, 0x4b, 0x3c, 0x45, 0x77, 0xae, 0xbb,
  0xc0, 0xb6, 0x39, 0xbd, 0xb0, 0xbe, 0x00, 0x3d, 0xe8, 0xcb, 0x19, 0x3d,
  0xd4, 0x27, 0xa5, 0x3d, 0x45, 0x29, 0x78, 0xbd, 0x43, 0xdc, 0xbc, 0xbd,
  0xa5, 0x69, 0x05, 0xbe, 0x66, 0xeb, 0x03, 0x3e, 0x3e, 0x59, 0x4f, 0xbd,
  0x47, 0xc7, 0x10, 0xbe, 0xcf, 0x28, 0x7a, 0xbd, 0x35, 0x3c, 0x6d, 0x3d,
  0xb3, 0x95, 0x10, 0x3e, 0x6a, 0xdd, 0x95, 0xbd, 0xfb, 0xe9, 0xaf, 0x3d,
  0xa7, 0xd2, 0xbc, 0x3a, 0x86, 0xa3, 0x95, 0x3d, 0xd6, 0x19, 0xc4, 0x3d,
  0x27, 0xa8, 0xc9, 0x3d, 0x3a, 0xe5, 0x1e, 0x3d, 0x92, 0xf9, 0x74, 0x3d,
  0x6c, 0x77, 0x73, 0x3d, 0x6e, 0x14, 0x1a, 0xbd, 0x31, 0xa9, 0xba, 0x3c,
  0x3e, 0x7f, 0x04, 0x3c, 0x26, 0xe5, 0xe8, 0xbd, 0xb9, 0x59, 0xb0, 0x3b,
  0xd7, 0x46, 0x09, 0xbc, 0x17, 0x26, 0x73, 0xbc, 0x7b, 0x38, 0x63, 0x3d,
  0x23, 0x1e, 0x0d, 0xbd, 0x0e, 0x09, 0xfe, 0xbd, 0x4e, 0x69, 0x24, 0x3e,
  0x0d, 0xfa, 0x27, 0x3e, 0x99, 0x9b, 0xbc, 0x3d, 0x31, 0xfa, 0x5e, 0x3c,
  0xef, 0x71, 0x37, 0x3e, 0xa2, 0xe9, 0x97, 0xbd, 0xda, 0xbe, 0x8f, 0xbd,
  0xbc, 0x48, 0x82, 0x3d, 0x16, 0xaa, 0xe8, 0x3d, 0x34, 0x8b, 0x9d, 0xbc,
  0x80, 0xbf, 0xd1, 0xbd, 0x53, 0x80, 0xeb, 0xbd, 0xc6, 0x17, 0xcf, 0x3c,
  0x41, 0xec, 0xe3, 0x3d, 0xb4, 0xf7, 0x00, 0xbe, 0x7b, 0x67, 0xce, 0xbd,
  0x10, 0xb5, 0x73, 0x3e, 0x7d, 0xa9, 0xa7, 0xbd, 0x9b, 0x51, 0x06, 0xbe,
  0xec, 0x69, 0xe4, 0x3d, 0x66, 0x99, 0x2b, 0xbd, 0xdf, 0x24, 0x8c, 0xbd,
  0xdf, 0x73, 0x1a, 0x3e, 0xf1, 0x0d, 0xea, 0xbd, 0xea, 0x80, 0xb1, 0xbd,
  0x6d, 0x92, 0x46, 0xbd, 0x55, 0xfd, 0x69, 0x3d, 0xae, 0x00, 0x1c, 0xbc,
  0x2c, 0x99, 0xb8, 0xbd, 0x65, 0x6a, 0x2b, 0x3e, 0x68, 0x75, 0x0a, 0xbd,
  0x98, 0xb5, 0x3c, 0x3d, 0x22, 0xa3, 0x5e, 0x3e, 0xde, 0x69, 0xe2, 0x3d,
  0x4f, 0xbc, 0x14, 0xbc, 0x54, 0xc4, 0x3b, 0xbd, 0xab, 0x9f, 0x9b, 0x3d,
  0xfc, 0x84, 0xe3, 0xbd, 0x12, 0xb0, 0x8c, 0xbd, 0x31, 0xb4, 0x98, 0xbd,
  0x7c, 0xb7, 0xa7, 0xbd, 0xb6, 0xf3, 0x98, 0xbd, 0x49, 0xd6, 0x25, 0xbd,
  0x93, 0xf1, 0x91, 0xbd, 0x42, 0x0d, 0xcd, 0x3d, 0x19, 0x6e, 0x6d, 0x3d,
  0xcd, 0x14, 0x1a, 0x3b, 0xcb, 0xea, 0xe5, 0xbd, 0xe5, 0x0e, 0xcc, 0x3d,
  0xb0, 0xf1, 0x93, 0x3c, 0x6b, 0x9f, 0xe3, 0xbd, 0xd3, 0xda, 0xc8, 0xbd,
  0x4b, 0x22, 0xac, 0x3d, 0x09, 0x12, 0x11, 0x3e, 0xc0, 0x93, 0x23, 0x3d,
  0x1c, 0x15, 0x46, 0xbd, 0xc1, 0xc7, 0x8f, 0x3d, 0xfa, 0xd8, 0xed, 0x3d,
  0x49, 0x66, 0xa3, 0xbd, 0x22, 0x93, 0x80, 0x3d, 0x16, 0x5f, 0x09, 0x3d,
  0x09, 0xee, 0x1b, 0xbc, 0xe8, 0xf3, 0xd9, 0xbb, 0xa2, 0xe6, 0x9b, 0x3c,
  0x8f, 0x56, 0x35, 0x3e, 0x35, 0x65, 0xd4, 0x3c, 0xa2, 0xec, 0x8b, 0xbd,
  0xac, 0x36, 0xa3, 0xbd, 0xba, 0xc6, 0xb9, 0xbc, 0x3b, 0x3d, 0x16, 0x3e,
  0x77, 0x8d, 0x0d, 0x3e, 0x52, 0x36, 0xb6, 0x3d, 0x40, 0x73, 0xf5, 0x3d,
  0x10, 0x3f, 0xcd, 0x3d, 0x30, 0x54, 0x0c, 0x3e, 0xf0, 0x34, 0x3c, 0x3e,
  0xb3, 0xfd, 0x50, 0x3d, 0x29, 0xb0, 0x62, 0x3e, 0x31, 0x97, 0xee, 0x3d,
  0x5a, 0xd8, 0xb9, 0x3d, 0xc9, 0x8a, 0x3f, 0x3e, 0x3c, 0xb7, 0xa1, 0xbc,
  0x2b, 0x16, 0xf3, 0x3d, 0x95, 0xcf, 0x9a, 0x3d, 0x4f, 0x6d, 0xce, 0x3d,
  0xe0, 0x9c, 0x2a, 0x3c, 0xb4, 0xed, 0x12, 0xbe, 0x9d, 0xbf, 0x3b, 0x3e,
  0xf3, 0xc0, 0x3c, 0x3e, 0x31, 0xed, 0x0f, 0xbd, 0xac, 0xf9, 0xe6, 0xbd,
  0xf8, 0x2f, 0xa5, 0xbc, 0xac, 0x7f, 0x38, 0x3e, 0x65, 0xed, 0x53, 0xbd,
  0x37, 0x4f, 0x42, 0x3e, 0x97, 0x83, 0x93, 0xbc, 0x10, 0x59, 0xc2, 0x3d,
  0xd7, 0x8d, 0x9d, 0xbd, 0x4e, 0x92, 0x07, 0x3d, 0x8e, 0x93, 0xf5, 0x3d,
  0xeb, 0x96, 0xb2, 0x3d, 0x9c, 0x78, 0x56, 0x3d, 0x88, 0x5b, 0x9b, 0xbd,
  0x8e, 0xef, 0x9f, 0xbc, 0x44, 0x85, 0xc1, 0x3d, 0xb7, 0x16, 0x13, 0x3d,
  0xa1, 0x63, 0xfa, 0x3d, 0xc4, 0xe5, 0x0f, 0x3e, 0x30, 0x5f, 0x15, 0xbc,
  0xd2, 0x19, 0x46, 0x3e, 0x21, 0xfb, 0x38, 0x3e, 0x54, 0x0e, 0xc6, 0xbc,
  0x1b, 0x5e, 0x11, 0x3e, 0xd8, 0x0a, 0x13, 0x3e, 0x0c, 0x2f, 0x90, 0xbc,
  0x9c, 0x02, 0xdd, 0x3d, 0x83, 0xee, 0xae, 0xbd, 0x47, 0xe0, 0xea, 0xbd,
  0xd2, 0x38, 0xfd, 0x3d, 0x1b, 0x1a, 0x16, 0x3a, 0x7c, 0x48, 0x73, 0xbd,
  0xc6, 0x44, 0xb9, 0xbd, 0x51, 0xd5, 0x1c, 0x3e, 0x31, 0x48, 0xb2, 0xb9,
  0x37, 0xcf, 0x55, 0x3d, 0x81, 0x0a, 0xd6, 0x3d, 0xcc, 0x7d, 0x17, 0x3e,
  0x87, 0x8a, 0x4d, 0xbd, 0x0e, 0x5e, 0xac, 0xbd, 0x9f, 0x95, 0xa6, 0x3d,
  0x78, 0x9d, 0x14, 0x3e, 0x63, 0x37, 0xd6, 0x3d, 0x50, 0xfc, 0xb9, 0xbd,
  0x50, 0x5d, 0x0b, 0xbc, 0x48, 0xda, 0xbe, 0x3c, 0x38, 0x4b, 0xe9, 0x3d,
  0x3e, 0xb9, 0x2a, 0x3e, 0x3e, 0x0a, 0xd9, 0xbd, 0xdc, 0x7d, 0x6d, 0xbc,
  0xa0, 0xc8, 0x8a, 0x3d, 0xdb, 0xd3, 0x8b, 0x3d, 0x55, 0x3a, 0x84, 0xbd,
  0x43, 0x00, 0x41, 0x3d, 0xf5, 0x08, 0xa3, 0x3c, 0x0c, 0xd2, 0x8b, 0xbb,
  0xde, 0xa7, 0xed, 0xbd, 0x00, 0x82, 0xd2, 0x3d, 0x38, 0x1d, 0x04, 0x3e,
  0xf8, 0xdc, 0xa2, 0x3d, 0x0d, 0xc4, 0x01, 0x3e, 0xbc, 0x56, 0x48, 0x3d,
  0x40, 0xfc, 0xd5, 0x3d, 0x2c, 0x18, 0x1f, 0xbd, 0x0e, 0xb1, 0x9b, 0xbd,
  0x2f, 0x0a, 0x2b, 0xbc, 0x86, 0x71, 0xed, 0xbc, 0xd7, 0xbc, 0x21, 0xbd,
  0xbf, 0x11, 0xc2, 0x3c, 0xbb, 0x3c, 0xbb, 0x3c, 0x44, 0xde, 0xa1, 0xbd,
  0x68, 0x6f, 0x33, 0x3d, 0xff, 0x72, 0x06, 0x3e, 0xef, 0xc8, 0x3d, 0x3d,
  0x80, 0xb5, 0x53, 0x3d, 0xbd, 0xe4, 0xf8, 0x3c, 0x3a, 0x99, 0xaa, 0x3d,
  0x30, 0xc0, 0xd6, 0x3c, 0xae, 0x26, 0x03, 0x3e, 0xe2, 0x02, 0x86, 0x3d,
  0x1e, 0x1a, 0x6c, 0xbc, 0x55, 0x42, 0x26, 0x3d, 0x29, 0xa5, 0xbf, 0x3d,
  0x17, 0x7a, 0x94, 0x3d, 0x40, 0xab, 0x24, 0x3e, 0x95, 0x83, 0x40, 0x3e,
  0x1e, 0x8a, 0x98, 0xbd, 0x5a, 0xc8, 0x75, 0xbc, 0xec, 0x2f, 0x5f, 0x3d,
  0xd0, 0xd4, 0xbc, 0x3d, 0xea, 0xe2, 0x01, 0xbc, 0x35, 0xb3, 0x2c, 0x3d,
  0x40, 0x0d, 0x79, 0xbd, 0x00, 0xaa, 0x3f, 0xba, 0x36, 0x2b, 0x17, 0xbd,
  0x6f, 0xe5, 0x9a, 0x3d, 0xe9, 0x6e, 0x11, 0x3d, 0xb6, 0x67, 0x1d, 0xbc,
  0xc4, 0xcf, 0xb0, 0x3d, 0x83, 0x3f, 0xa4, 0x3d, 0xf7, 0x55, 0x1f, 0x3e,
  0xd8, 0xb3, 0x2d, 0x3d, 0xf3, 0x4e, 0x03, 0x3d, 0x56, 0xa5, 0x31, 0xbe,
  0x25, 0xd8, 0x82, 0xbd, 0x1f, 0x85, 0xcf, 0x3d, 0xab, 0xc9, 0xa5, 0xbd,
  0x57, 0x8e, 0x92, 0xbd, 0x46, 0x9b, 0xaf, 0x3d, 0xb9, 0x50, 0x08, 0x3e,
  0x52, 0xc3, 0x10, 0x3e, 0x5c, 0xcb, 0x63, 0xbb, 0x4d, 0x21, 0x23, 0x3e,
  0xbc, 0xb2, 0x8d, 0x3d, 0x63, 0x1d, 0x7e, 0xbd, 0x26, 0xc4, 0xb1, 0x3d,
  0xfc, 0x67, 0x02, 0xbc, 0xd7, 0xcc, 0x49, 0x3e, 0x65, 0xee, 0x57, 0x3d,
  0x4f, 0xbf, 0x16, 0x3d, 0x31, 0x2e, 0xd8, 0xbc, 0x5d, 0x9a, 0xd2, 0xbd,
  0x0c, 0x06, 0xd8, 0x3d, 0xa4, 0x15, 0xb3, 0x3d, 0x94, 0x84, 0x25, 0x3d,
  0x11, 0x30, 0x1e, 0x3e, 0x11, 0xac, 0x62, 0xbb, 0xe2, 0xd2, 0x4d, 0x3d,
  0x3e, 0xe2, 0x90, 0x3d, 0x44, 0xd8, 0x75, 0xbd, 0xa3, 0xc2, 0xa2, 0x3d,
  0x03, 0xb6, 0x19, 0x3e, 0xfb, 0x54, 0x58, 0x3c, 0x52, 0x59, 0xe2, 0x3d,
  0xa2, 0x1a, 0x2d, 0x3d, 0x38, 0xf1, 0xd0, 0x3c, 0x7c, 0x6c, 0x30, 0x3d,
  0xe0, 0x94, 0xc4, 0xbc, 0xf0, 0x60, 0xa3, 0xbd, 0x6d, 0x66, 0x12, 0xbe,
  0x3c, 0x41, 0x4a, 0xbd, 0x70, 0x0f, 0x26, 0xbc, 0xe0, 0x89, 0x2b, 0xbd,
  0x21, 0x3e, 0x0f, 0x3e, 0x58, 0x47, 0x1d, 0xbd, 0x96, 0x29, 0xd9, 0x3d,
  0x72, 0x52, 0xd9, 0x3d, 0x54, 0xd4, 0x04, 0xbd, 0xe8, 0xae, 0x06, 0x3d,
  0x2b, 0x82, 0x0e, 0x3e, 0x5a, 0x3d, 0xe6, 0x3d, 0x30, 0x10, 0x82, 0x3c,
  0xf0, 0x84, 0x87, 0x3c, 0x22, 0xc2, 0x0c, 0xbe, 0xf0, 0xbf, 0x52, 0xbd,
  0x5a, 0x1d, 0xd2, 0x3d, 0x38, 0x24, 0x9c, 0xbd, 0x58, 0x0e, 0x00, 0xbd,
  0x38, 0x8c, 0xc7, 0xbc, 0x00, 0xe9, 0xc5, 0x3c, 0xd8, 0x8b, 0x97, 0xbc,
  0x80, 0x95, 0xf6, 0xba, 0x11, 0x22, 0x21, 0x3e, 0xba, 0x83, 0xe3, 0x3d,
  0x86, 0xdf, 0xf0, 0x3d, 0x73, 0x2f, 0x03, 0x3e, 0x90, 0xdc, 0x00, 0xbe,
  0x02, 0x63, 0x07, 0xbe, 0xf6, 0x00, 0xb0, 0xbd, 0x19, 0xf2, 0x07, 0x3e,
  0x5c, 0xdb, 0x2a, 0xbd, 0xc4, 0xf9, 0x92, 0x3d, 0xfb, 0x59, 0x1d, 0xbe,
  0x00, 0xcc, 0x3f, 0xb9, 0x40, 0x38, 0x5b, 0x3b, 0xa8, 0xa9, 0xd0, 0xbc,
  0x91, 0x31, 0xb1, 0xbd, 0x8e, 0x51, 0x9c, 0xbd, 0x59, 0xab, 0x1b, 0xbe,
  0x38, 0x29, 0x1d, 0x3d, 0x06, 0x8b, 0x8e, 0x3d, 0x6c, 0x80, 0x0c, 0x3d,
  0x36, 0x07, 0xba, 0x3d, 0xee, 0xcb, 0xfb, 0x3d, 0x60, 0x15, 0x92, 0x3b,
  0x2e, 0xc1, 0xdc, 0xbd, 0x06, 0x26, 0xf7, 0x3d, 0xf2, 0x17, 0xc2, 0x3d,
  0xcd, 0xb7, 0xfa, 0xbd, 0x34, 0x05, 0x52, 0x3d, 0x10, 0xc3, 0x78, 0xbc,
  0x2e, 0x0a, 0x87, 0x3d, 0xae, 0xbe, 0x13, 0xbe, 0xa4, 0x05, 0xa9, 0xbd,
  0xc4, 0xc0, 0x66, 0xbd, 0xfd, 0x76, 0x92, 0xbd, 0x80, 0x6d, 0x75, 0x3b,
  0xc8, 0xeb, 0x00, 0x3d, 0x9e, 0xcd, 0x8f, 0xbd, 0x06, 0x74, 0xea, 0x3d,
  0xac, 0xde, 0x17, 0xbe, 0x12, 0x63, 0xc0, 0xbd, 0x80, 0x02, 0x9e, 0xba,
  0x00, 0xd6, 0x73, 0x3b, 0xa8, 0x4e, 0x5d, 0x3d, 0x15, 0xeb, 0x1d, 0xbe,
  0x40, 0x00, 0x76, 0xbb, 0xe4, 0xd4, 0xf3, 0xbd, 0x05, 0x0a, 0x21, 0xbe,
